{
    "version": "1.0",
    "truncation": null,
    "padding": null,
    "added_tokens": [
        {
            "id": 0,
            "special": true,
            "content": "<pad>",
            "single_word": false,
            "lstrip": false,
            "rstrip": false,
            "normalized": false
        },
        {
            "id": 1,
            "special": true,
            "content": "<unk>",
            "single_word": false,
            "lstrip": false,
            "rstrip": false,
            "normalized": false
        },
        {
            "id": 2,
            "special": true,
            "content": "<cls>",
            "single_word": false,
            "lstrip": false,
            "rstrip": false,
            "normalized": false
        },
        {
            "id": 3,
            "special": true,
            "content": "<sep>",
            "single_word": false,
            "lstrip": false,
            "rstrip": false,
            "normalized": false
        },
        {
            "id": 4,
            "special": true,
            "content": "<mask>",
            "single_word": false,
            "lstrip": false,
            "rstrip": false,
            "normalized": false
        },
        {
            "id": 5,
            "special": true,
            "content": "<bos>",
            "single_word": false,
            "lstrip": false,
            "rstrip": false,
            "normalized": false
        },
        {
            "id": 6,
            "special": true,
            "content": "<eos>",
            "single_word": false,
            "lstrip": false,
            "rstrip": false,
            "normalized": false
        },
        {
            "id": 7,
            "special": true,
            "content": "<tsep>",
            "single_word": false,
            "lstrip": false,
            "rstrip": false,
            "normalized": false
        },
        {
            "id": 8,
            "special": true,
            "content": "<unk0>",
            "single_word": false,
            "lstrip": false,
            "rstrip": false,
            "normalized": false
        },
        {
            "id": 9,
            "special": true,
            "content": "<unk1>",
            "single_word": false,
            "lstrip": false,
            "rstrip": false,
            "normalized": false
        },
        {
            "id": 10,
            "special": true,
            "content": "<unk2>",
            "single_word": false,
            "lstrip": false,
            "rstrip": false,
            "normalized": false
        },
        {
            "id": 11,
            "special": true,
            "content": "<unk3>",
            "single_word": false,
            "lstrip": false,
            "rstrip": false,
            "normalized": false
        },
        {
            "id": 12,
            "special": true,
            "content": "<unk4>",
            "single_word": false,
            "lstrip": false,
            "rstrip": false,
            "normalized": false
        },
        {
            "id": 13,
            "special": true,
            "content": "<unk5>",
            "single_word": false,
            "lstrip": false,
            "rstrip": false,
            "normalized": false
        },
        {
            "id": 14,
            "special": true,
            "content": "<unk6>",
            "single_word": false,
            "lstrip": false,
            "rstrip": false,
            "normalized": false
        },
        {
            "id": 15,
            "special": true,
            "content": "<unk7>",
            "single_word": false,
            "lstrip": false,
            "rstrip": false,
            "normalized": false
        },
        {
            "id": 16,
            "special": true,
            "content": "<unk8>",
            "single_word": false,
            "lstrip": false,
            "rstrip": false,
            "normalized": false
        },
        {
            "id": 17,
            "special": true,
            "content": "<unk9>",
            "single_word": false,
            "lstrip": false,
            "rstrip": false,
            "normalized": false
        },
        {
            "id": 18,
            "special": true,
            "content": "<unused0>",
            "single_word": false,
            "lstrip": false,
            "rstrip": false,
            "normalized": false
        },
        {
            "id": 19,
            "special": true,
            "content": "<unused1>",
            "single_word": false,
            "lstrip": false,
            "rstrip": false,
            "normalized": false
        },
        {
            "id": 20,
            "special": true,
            "content": "<unused2>",
            "single_word": false,
            "lstrip": false,
            "rstrip": false,
            "normalized": false
        },
        {
            "id": 21,
            "special": true,
            "content": "<unused3>",
            "single_word": false,
            "lstrip": false,
            "rstrip": false,
            "normalized": false
        },
        {
            "id": 22,
            "special": true,
            "content": "<unused4>",
            "single_word": false,
            "lstrip": false,
            "rstrip": false,
            "normalized": false
        },
        {
            "id": 23,
            "special": true,
            "content": "<unused5>",
            "single_word": false,
            "lstrip": false,
            "rstrip": false,
            "normalized": false
        },
        {
            "id": 24,
            "special": true,
            "content": "<unused6>",
            "single_word": false,
            "lstrip": false,
            "rstrip": false,
            "normalized": false
        },
        {
            "id": 25,
            "special": true,
            "content": "<unused7>",
            "single_word": false,
            "lstrip": false,
            "rstrip": false,
            "normalized": false
        },
        {
            "id": 26,
            "special": true,
            "content": "<unused8>",
            "single_word": false,
            "lstrip": false,
            "rstrip": false,
            "normalized": false
        },
        {
            "id": 27,
            "special": true,
            "content": "<unused9>",
            "single_word": false,
            "lstrip": false,
            "rstrip": false,
            "normalized": false
        },
        {
            "id": 28,
            "special": true,
            "content": "<unused10>",
            "single_word": false,
            "lstrip": false,
            "rstrip": false,
            "normalized": false
        },
        {
            "id": 29,
            "special": true,
            "content": "<unused11>",
            "single_word": false,
            "lstrip": false,
            "rstrip": false,
            "normalized": false
        },
        {
            "id": 30,
            "special": true,
            "content": "<unused12>",
            "single_word": false,
            "lstrip": false,
            "rstrip": false,
            "normalized": false
        },
        {
            "id": 31,
            "special": true,
            "content": "<unused13>",
            "single_word": false,
            "lstrip": false,
            "rstrip": false,
            "normalized": false
        },
        {
            "id": 32,
            "special": true,
            "content": "<unused14>",
            "single_word": false,
            "lstrip": false,
            "rstrip": false,
            "normalized": false
        },
        {
            "id": 33,
            "special": true,
            "content": "<unused15>",
            "single_word": false,
            "lstrip": false,
            "rstrip": false,
            "normalized": false
        },
        {
            "id": 34,
            "special": true,
            "content": "<unused16>",
            "single_word": false,
            "lstrip": false,
            "rstrip": false,
            "normalized": false
        },
        {
            "id": 35,
            "special": true,
            "content": "<unused17>",
            "single_word": false,
            "lstrip": false,
            "rstrip": false,
            "normalized": false
        },
        {
            "id": 36,
            "special": true,
            "content": "<unused18>",
            "single_word": false,
            "lstrip": false,
            "rstrip": false,
            "normalized": false
        },
        {
            "id": 37,
            "special": true,
            "content": "<unused19>",
            "single_word": false,
            "lstrip": false,
            "rstrip": false,
            "normalized": false
        },
        {
            "id": 38,
            "special": true,
            "content": "<unused20>",
            "single_word": false,
            "lstrip": false,
            "rstrip": false,
            "normalized": false
        },
        {
            "id": 39,
            "special": true,
            "content": "<unused21>",
            "single_word": false,
            "lstrip": false,
            "rstrip": false,
            "normalized": false
        },
        {
            "id": 40,
            "special": true,
            "content": "<unused22>",
            "single_word": false,
            "lstrip": false,
            "rstrip": false,
            "normalized": false
        },
        {
            "id": 41,
            "special": true,
            "content": "<unused23>",
            "single_word": false,
            "lstrip": false,
            "rstrip": false,
            "normalized": false
        },
        {
            "id": 42,
            "special": true,
            "content": "<unused24>",
            "single_word": false,
            "lstrip": false,
            "rstrip": false,
            "normalized": false
        },
        {
            "id": 43,
            "special": true,
            "content": "<unused25>",
            "single_word": false,
            "lstrip": false,
            "rstrip": false,
            "normalized": false
        },
        {
            "id": 44,
            "special": true,
            "content": "<unused26>",
            "single_word": false,
            "lstrip": false,
            "rstrip": false,
            "normalized": false
        },
        {
            "id": 45,
            "special": true,
            "content": "<unused27>",
            "single_word": false,
            "lstrip": false,
            "rstrip": false,
            "normalized": false
        },
        {
            "id": 46,
            "special": true,
            "content": "<unused28>",
            "single_word": false,
            "lstrip": false,
            "rstrip": false,
            "normalized": false
        },
        {
            "id": 47,
            "special": true,
            "content": "<unused29>",
            "single_word": false,
            "lstrip": false,
            "rstrip": false,
            "normalized": false
        },
        {
            "id": 48,
            "special": true,
            "content": "<unused30>",
            "single_word": false,
            "lstrip": false,
            "rstrip": false,
            "normalized": false
        },
        {
            "id": 49,
            "special": true,
            "content": "<unused31>",
            "single_word": false,
            "lstrip": false,
            "rstrip": false,
            "normalized": false
        },
        {
            "id": 50,
            "special": true,
            "content": "<unused32>",
            "single_word": false,
            "lstrip": false,
            "rstrip": false,
            "normalized": false
        },
        {
            "id": 51,
            "special": true,
            "content": "<unused33>",
            "single_word": false,
            "lstrip": false,
            "rstrip": false,
            "normalized": false
        },
        {
            "id": 52,
            "special": true,
            "content": "<unused34>",
            "single_word": false,
            "lstrip": false,
            "rstrip": false,
            "normalized": false
        },
        {
            "id": 53,
            "special": true,
            "content": "<unused35>",
            "single_word": false,
            "lstrip": false,
            "rstrip": false,
            "normalized": false
        },
        {
            "id": 54,
            "special": true,
            "content": "<unused36>",
            "single_word": false,
            "lstrip": false,
            "rstrip": false,
            "normalized": false
        },
        {
            "id": 55,
            "special": true,
            "content": "<unused37>",
            "single_word": false,
            "lstrip": false,
            "rstrip": false,
            "normalized": false
        },
        {
            "id": 56,
            "special": true,
            "content": "<unused38>",
            "single_word": false,
            "lstrip": false,
            "rstrip": false,
            "normalized": false
        },
        {
            "id": 57,
            "special": true,
            "content": "<unused39>",
            "single_word": false,
            "lstrip": false,
            "rstrip": false,
            "normalized": false
        },
        {
            "id": 58,
            "special": true,
            "content": "<unused40>",
            "single_word": false,
            "lstrip": false,
            "rstrip": false,
            "normalized": false
        },
        {
            "id": 59,
            "special": true,
            "content": "<unused41>",
            "single_word": false,
            "lstrip": false,
            "rstrip": false,
            "normalized": false
        },
        {
            "id": 60,
            "special": true,
            "content": "<unused42>",
            "single_word": false,
            "lstrip": false,
            "rstrip": false,
            "normalized": false
        },
        {
            "id": 61,
            "special": true,
            "content": "<unused43>",
            "single_word": false,
            "lstrip": false,
            "rstrip": false,
            "normalized": false
        },
        {
            "id": 62,
            "special": true,
            "content": "<unused44>",
            "single_word": false,
            "lstrip": false,
            "rstrip": false,
            "normalized": false
        },
        {
            "id": 63,
            "special": true,
            "content": "<unused45>",
            "single_word": false,
            "lstrip": false,
            "rstrip": false,
            "normalized": false
        },
        {
            "id": 64,
            "special": true,
            "content": "<unused46>",
            "single_word": false,
            "lstrip": false,
            "rstrip": false,
            "normalized": false
        },
        {
            "id": 65,
            "special": true,
            "content": "<unused47>",
            "single_word": false,
            "lstrip": false,
            "rstrip": false,
            "normalized": false
        },
        {
            "id": 66,
            "special": true,
            "content": "<unused48>",
            "single_word": false,
            "lstrip": false,
            "rstrip": false,
            "normalized": false
        },
        {
            "id": 67,
            "special": true,
            "content": "<unused49>",
            "single_word": false,
            "lstrip": false,
            "rstrip": false,
            "normalized": false
        },
        {
            "id": 20000,
            "special": true,
            "content": "<|endoftext|>",
            "single_word": false,
            "lstrip": false,
            "rstrip": false,
            "normalized": true
        }
    ],
    "normalizer": {
        "type": "Sequence",
        "normalizers": [
            {
                "type": "NFKC"
            },
            {
                "type": "BertNormalizer",
                "clean_text": false,
                "handle_chinese_chars": false,
                "strip_accents": false,
                "lowercase": false
            }
        ]
    },
    "pre_tokenizer": {
        "type": "Sequence",
        "pretokenizers": [
            {
                "type": "Metaspace",
                "replacement": "▁",
                "add_prefix_space": true
            }
        ]
    },
    "post_processor": null,
    "decoder": {
        "type": "Metaspace",
        "replacement": "▁",
        "add_prefix_space": true
    },
    "model": {
        "type": "BPE",
        "dropout": null,
        "unk_token": null,
        "continuing_subword_prefix": "",
        "end_of_word_suffix": "",
        "fuse_unk": false,
        "vocab": {
            "<pad>": 0,
            "<unk>": 1,
            "<cls>": 2,
            "<sep>": 3,
            "<mask>": 4,
            "<bos>": 5,
            "<eos>": 6,
            "<tsep>": 7,
            "<unk0>": 8,
            "<unk1>": 9,
            "<unk2>": 10,
            "<unk3>": 11,
            "<unk4>": 12,
            "<unk5>": 13,
            "<unk6>": 14,
            "<unk7>": 15,
            "<unk8>": 16,
            "<unk9>": 17,
            "<unused0>": 18,
            "<unused1>": 19,
            "<unused2>": 20,
            "<unused3>": 21,
            "<unused4>": 22,
            "<unused5>": 23,
            "<unused6>": 24,
            "<unused7>": 25,
            "<unused8>": 26,
            "<unused9>": 27,
            "<unused10>": 28,
            "<unused11>": 29,
            "<unused12>": 30,
            "<unused13>": 31,
            "<unused14>": 32,
            "<unused15>": 33,
            "<unused16>": 34,
            "<unused17>": 35,
            "<unused18>": 36,
            "<unused19>": 37,
            "<unused20>": 38,
            "<unused21>": 39,
            "<unused22>": 40,
            "<unused23>": 41,
            "<unused24>": 42,
            "<unused25>": 43,
            "<unused26>": 44,
            "<unused27>": 45,
            "<unused28>": 46,
            "<unused29>": 47,
            "<unused30>": 48,
            "<unused31>": 49,
            "<unused32>": 50,
            "<unused33>": 51,
            "<unused34>": 52,
            "<unused35>": 53,
            "<unused36>": 54,
            "<unused37>": 55,
            "<unused38>": 56,
            "<unused39>": 57,
            "<unused40>": 58,
            "<unused41>": 59,
            "<unused42>": 60,
            "<unused43>": 61,
            "<unused44>": 62,
            "<unused45>": 63,
            "<unused46>": 64,
            "<unused47>": 65,
            "<unused48>": 66,
            "<unused49>": 67,
            "0": 68,
            "1": 69,
            "2": 70,
            "3": 71,
            "4": 72,
            "5": 73,
            "6": 74,
            "7": 75,
            "8": 76,
            "9": 77,
            "A": 78,
            "B": 79,
            "C": 80,
            "D": 81,
            "E": 82,
            "F": 83,
            "G": 84,
            "H": 85,
            "I": 86,
            "J": 87,
            "K": 88,
            "L": 89,
            "M": 90,
            "N": 91,
            "O": 92,
            "P": 93,
            "Q": 94,
            "R": 95,
            "S": 96,
            "T": 97,
            "U": 98,
            "V": 99,
            "W": 100,
            "X": 101,
            "Y": 102,
            "Z": 103,
            "a": 104,
            "b": 105,
            "c": 106,
            "d": 107,
            "e": 108,
            "f": 109,
            "g": 110,
            "h": 111,
            "i": 112,
            "j": 113,
            "k": 114,
            "l": 115,
            "m": 116,
            "n": 117,
            "o": 118,
            "p": 119,
            "q": 120,
            "r": 121,
            "s": 122,
            "t": 123,
            "u": 124,
            "v": 125,
            "w": 126,
            "x": 127,
            "y": 128,
            "z": 129,
            "ᄀ": 130,
            "ᄁ": 131,
            "ᄂ": 132,
            "ᄃ": 133,
            "ᄄ": 134,
            "ᄅ": 135,
            "ᄆ": 136,
            "ᄇ": 137,
            "ᄈ": 138,
            "ᄉ": 139,
            "ᄊ": 140,
            "ᄋ": 141,
            "ᄌ": 142,
            "ᄍ": 143,
            "ᄎ": 144,
            "ᄏ": 145,
            "ᄐ": 146,
            "ᄑ": 147,
            "ᄒ": 148,
            "ᅡ": 149,
            "ᅢ": 150,
            "ᅣ": 151,
            "ᅥ": 152,
            "ᅦ": 153,
            "ᅧ": 154,
            "ᅩ": 155,
            "ᅮ": 156,
            "ᅱ": 157,
            "ᅲ": 158,
            "ᅳ": 159,
            "ᅵ": 160,
            "▁": 161,
            "가": 162,
            "각": 163,
            "간": 164,
            "갇": 165,
            "갈": 166,
            "갉": 167,
            "감": 168,
            "갑": 169,
            "값": 170,
            "갓": 171,
            "갔": 172,
            "강": 173,
            "갖": 174,
            "갗": 175,
            "같": 176,
            "갚": 177,
            "갛": 178,
            "개": 179,
            "객": 180,
            "갠": 181,
            "갤": 182,
            "갬": 183,
            "갭": 184,
            "갯": 185,
            "갰": 186,
            "갱": 187,
            "갷": 188,
            "갸": 189,
            "갹": 190,
            "걀": 191,
            "걈": 192,
            "걋": 193,
            "걍": 194,
            "걔": 195,
            "거": 196,
            "걱": 197,
            "건": 198,
            "걷": 199,
            "걸": 200,
            "검": 201,
            "겁": 202,
            "겂": 203,
            "것": 204,
            "겄": 205,
            "겅": 206,
            "겆": 207,
            "겉": 208,
            "겊": 209,
            "겋": 210,
            "게": 211,
            "겐": 212,
            "겔": 213,
            "겜": 214,
            "겟": 215,
            "겠": 216,
            "겡": 217,
            "겢": 218,
            "겨": 219,
            "격": 220,
            "겪": 221,
            "견": 222,
            "겯": 223,
            "결": 224,
            "겸": 225,
            "겹": 226,
            "겻": 227,
            "겼": 228,
            "경": 229,
            "곁": 230,
            "계": 231,
            "곈": 232,
            "곌": 233,
            "곕": 234,
            "곗": 235,
            "곘": 236,
            "고": 237,
            "곡": 238,
            "곤": 239,
            "곧": 240,
            "골": 241,
            "곪": 242,
            "곬": 243,
            "곯": 244,
            "곰": 245,
            "곱": 246,
            "곳": 247,
            "공": 248,
            "곶": 249,
            "곺": 250,
            "과": 251,
            "곽": 252,
            "관": 253,
            "괄": 254,
            "괌": 255,
            "괍": 256,
            "괏": 257,
            "광": 258,
            "괘": 259,
            "괜": 260,
            "괫": 261,
            "괭": 262,
            "괴": 263,
            "괵": 264,
            "괸": 265,
            "괼": 266,
            "굉": 267,
            "교": 268,
            "굣": 269,
            "굥": 270,
            "구": 271,
            "국": 272,
            "군": 273,
            "굳": 274,
            "굴": 275,
            "굵": 276,
            "굶": 277,
            "굷": 278,
            "굼": 279,
            "굽": 280,
            "굿": 281,
            "궁": 282,
            "궂": 283,
            "궃": 284,
            "궅": 285,
            "궈": 286,
            "궉": 287,
            "권": 288,
            "궐": 289,
            "궜": 290,
            "궤": 291,
            "궨": 292,
            "궴": 293,
            "궷": 294,
            "귀": 295,
            "귁": 296,
            "귄": 297,
            "귈": 298,
            "귐": 299,
            "귓": 300,
            "규": 301,
            "귝": 302,
            "균": 303,
            "귤": 304,
            "그": 305,
            "극": 306,
            "근": 307,
            "귿": 308,
            "글": 309,
            "긁": 310,
            "긂": 311,
            "긇": 312,
            "금": 313,
            "급": 314,
            "긋": 315,
            "긍": 316,
            "긑": 317,
            "긓": 318,
            "긔": 319,
            "기": 320,
            "긱": 321,
            "긴": 322,
            "긷": 323,
            "길": 324,
            "김": 325,
            "깁": 326,
            "깃": 327,
            "깅": 328,
            "깉": 329,
            "깊": 330,
            "까": 331,
            "깍": 332,
            "깎": 333,
            "깐": 334,
            "깔": 335,
            "깜": 336,
            "깝": 337,
            "깟": 338,
            "깠": 339,
            "깡": 340,
            "깥": 341,
            "깨": 342,
            "깬": 343,
            "깰": 344,
            "깸": 345,
            "깻": 346,
            "깼": 347,
            "깽": 348,
            "꺄": 349,
            "꺅": 350,
            "꺠": 351,
            "꺼": 352,
            "꺽": 353,
            "꺾": 354,
            "껀": 355,
            "껄": 356,
            "껌": 357,
            "껍": 358,
            "껏": 359,
            "껐": 360,
            "껑": 361,
            "께": 362,
            "껜": 363,
            "껫": 364,
            "껴": 365,
            "꼈": 366,
            "꼍": 367,
            "꼐": 368,
            "꼬": 369,
            "꼭": 370,
            "꼰": 371,
            "꼴": 372,
            "꼼": 373,
            "꼽": 374,
            "꼿": 375,
            "꽁": 376,
            "꽂": 377,
            "꽃": 378,
            "꽈": 379,
            "꽉": 380,
            "꽌": 381,
            "꽐": 382,
            "꽝": 383,
            "꽤": 384,
            "꽥": 385,
            "꽹": 386,
            "꾀": 387,
            "꾐": 388,
            "꾜": 389,
            "꾸": 390,
            "꾹": 391,
            "꾼": 392,
            "꾾": 393,
            "꿀": 394,
            "꿇": 395,
            "꿈": 396,
            "꿉": 397,
            "꿋": 398,
            "꿍": 399,
            "꿎": 400,
            "꿏": 401,
            "꿔": 402,
            "꿕": 403,
            "꿘": 404,
            "꿜": 405,
            "꿨": 406,
            "꿩": 407,
            "꿰": 408,
            "꿴": 409,
            "꿸": 410,
            "뀄": 411,
            "뀌": 412,
            "뀐": 413,
            "뀔": 414,
            "뀜": 415,
            "뀝": 416,
            "뀠": 417,
            "뀰": 418,
            "끄": 419,
            "끅": 420,
            "끈": 421,
            "끊": 422,
            "끌": 423,
            "끎": 424,
            "끓": 425,
            "끔": 426,
            "끕": 427,
            "끗": 428,
            "끙": 429,
            "끝": 430,
            "끼": 431,
            "끽": 432,
            "낀": 433,
            "낄": 434,
            "낌": 435,
            "낍": 436,
            "낏": 437,
            "낑": 438,
            "나": 439,
            "낙": 440,
            "낚": 441,
            "난": 442,
            "낞": 443,
            "낟": 444,
            "날": 445,
            "낡": 446,
            "남": 447,
            "납": 448,
            "낫": 449,
            "났": 450,
            "낭": 451,
            "낮": 452,
            "낯": 453,
            "낱": 454,
            "낳": 455,
            "내": 456,
            "낵": 457,
            "낸": 458,
            "낼": 459,
            "냄": 460,
            "냅": 461,
            "냇": 462,
            "냈": 463,
            "냉": 464,
            "냐": 465,
            "냑": 466,
            "냔": 467,
            "냘": 468,
            "냠": 469,
            "냥": 470,
            "냬": 471,
            "너": 472,
            "넉": 473,
            "넋": 474,
            "넌": 475,
            "널": 476,
            "넑": 477,
            "넒": 478,
            "넓": 479,
            "넗": 480,
            "넘": 481,
            "넙": 482,
            "넛": 483,
            "넜": 484,
            "넝": 485,
            "넡": 486,
            "넣": 487,
            "네": 488,
            "넥": 489,
            "넨": 490,
            "넫": 491,
            "넬": 492,
            "넴": 493,
            "넵": 494,
            "넷": 495,
            "넸": 496,
            "넹": 497,
            "넻": 498,
            "넼": 499,
            "녀": 500,
            "녁": 501,
            "년": 502,
            "녈": 503,
            "념": 504,
            "녑": 505,
            "녓": 506,
            "녔": 507,
            "녕": 508,
            "녘": 509,
            "녜": 510,
            "녝": 511,
            "녠": 512,
            "녤": 513,
            "노": 514,
            "녹": 515,
            "논": 516,
            "놀": 517,
            "놈": 518,
            "놉": 519,
            "놋": 520,
            "농": 521,
            "놏": 522,
            "높": 523,
            "놓": 524,
            "놔": 525,
            "놨": 526,
            "놰": 527,
            "뇌": 528,
            "뇐": 529,
            "뇔": 530,
            "뇝": 531,
            "뇨": 532,
            "뇰": 533,
            "뇽": 534,
            "누": 535,
            "눅": 536,
            "눈": 537,
            "눌": 538,
            "눔": 539,
            "눕": 540,
            "눗": 541,
            "눙": 542,
            "눝": 543,
            "눞": 544,
            "눠": 545,
            "눴": 546,
            "뉘": 547,
            "뉜": 548,
            "뉠": 549,
            "뉨": 550,
            "뉩": 551,
            "뉴": 552,
            "뉵": 553,
            "뉸": 554,
            "뉼": 555,
            "늄": 556,
            "늇": 557,
            "늉": 558,
            "느": 559,
            "늑": 560,
            "는": 561,
            "늘": 562,
            "늙": 563,
            "늚": 564,
            "늠": 565,
            "늡": 566,
            "능": 567,
            "늦": 568,
            "늩": 569,
            "늪": 570,
            "늫": 571,
            "늬": 572,
            "니": 573,
            "닉": 574,
            "닌": 575,
            "닐": 576,
            "님": 577,
            "닙": 578,
            "닛": 579,
            "닜": 580,
            "닝": 581,
            "닢": 582,
            "닣": 583,
            "다": 584,
            "닥": 585,
            "닦": 586,
            "단": 587,
            "닪": 588,
            "닫": 589,
            "달": 590,
            "닭": 591,
            "닮": 592,
            "닯": 593,
            "닲": 594,
            "닳": 595,
            "담": 596,
            "답": 597,
            "닷": 598,
            "당": 599,
            "닻": 600,
            "닿": 601,
            "대": 602,
            "댁": 603,
            "댄": 604,
            "댈": 605,
            "댐": 606,
            "댑": 607,
            "댓": 608,
            "댔": 609,
            "댕": 610,
            "댜": 611,
            "댱": 612,
            "더": 613,
            "덕": 614,
            "덖": 615,
            "던": 616,
            "덜": 617,
            "덞": 618,
            "덟": 619,
            "덤": 620,
            "덥": 621,
            "덧": 622,
            "덨": 623,
            "덩": 624,
            "덪": 625,
            "덫": 626,
            "덮": 627,
            "데": 628,
            "덱": 629,
            "덴": 630,
            "델": 631,
            "뎀": 632,
            "뎁": 633,
            "뎃": 634,
            "뎅": 635,
            "뎌": 636,
            "뎐": 637,
            "뎠": 638,
            "뎡": 639,
            "뎨": 640,
            "뎬": 641,
            "도": 642,
            "독": 643,
            "돈": 644,
            "돋": 645,
            "돌": 646,
            "돎": 647,
            "돔": 648,
            "돕": 649,
            "돗": 650,
            "돘": 651,
            "동": 652,
            "돛": 653,
            "돝": 654,
            "돠": 655,
            "돤": 656,
            "돨": 657,
            "돼": 658,
            "됍": 659,
            "됏": 660,
            "됐": 661,
            "되": 662,
            "된": 663,
            "될": 664,
            "됨": 665,
            "됩": 666,
            "됫": 667,
            "됬": 668,
            "됭": 669,
            "됮": 670,
            "됴": 671,
            "두": 672,
            "둑": 673,
            "둔": 674,
            "둘": 675,
            "둠": 676,
            "둡": 677,
            "둣": 678,
            "둥": 679,
            "둬": 680,
            "뒀": 681,
            "뒈": 682,
            "뒤": 683,
            "뒫": 684,
            "뒬": 685,
            "뒷": 686,
            "뒹": 687,
            "듀": 688,
            "듄": 689,
            "듈": 690,
            "듐": 691,
            "듕": 692,
            "드": 693,
            "득": 694,
            "든": 695,
            "듣": 696,
            "들": 697,
            "듦": 698,
            "듬": 699,
            "듭": 700,
            "듯": 701,
            "등": 702,
            "듸": 703,
            "디": 704,
            "딕": 705,
            "딘": 706,
            "딛": 707,
            "딜": 708,
            "딤": 709,
            "딥": 710,
            "딧": 711,
            "딨": 712,
            "딩": 713,
            "딪": 714,
            "따": 715,
            "딱": 716,
            "딴": 717,
            "딸": 718,
            "딹": 719,
            "땀": 720,
            "땁": 721,
            "땃": 722,
            "땄": 723,
            "땅": 724,
            "땋": 725,
            "때": 726,
            "땍": 727,
            "땐": 728,
            "땔": 729,
            "땜": 730,
            "땝": 731,
            "땟": 732,
            "땠": 733,
            "땡": 734,
            "떄": 735,
            "떈": 736,
            "떙": 737,
            "떠": 738,
            "떡": 739,
            "떤": 740,
            "떨": 741,
            "떫": 742,
            "떰": 743,
            "떳": 744,
            "떴": 745,
            "떵": 746,
            "떻": 747,
            "떼": 748,
            "떽": 749,
            "뗀": 750,
            "뗄": 751,
            "뗌": 752,
            "뗍": 753,
            "뗏": 754,
            "뗐": 755,
            "뗑": 756,
            "뗴": 757,
            "또": 758,
            "똑": 759,
            "똘": 760,
            "똥": 761,
            "똬": 762,
            "뙇": 763,
            "뙈": 764,
            "뙜": 765,
            "뙤": 766,
            "뙨": 767,
            "뚀": 768,
            "뚜": 769,
            "뚝": 770,
            "뚠": 771,
            "뚤": 772,
            "뚫": 773,
            "뚱": 774,
            "뛰": 775,
            "뛴": 776,
            "뛸": 777,
            "뜀": 778,
            "뜁": 779,
            "뜨": 780,
            "뜩": 781,
            "뜬": 782,
            "뜯": 783,
            "뜰": 784,
            "뜷": 785,
            "뜸": 786,
            "뜹": 787,
            "뜻": 788,
            "띄": 789,
            "띈": 790,
            "띌": 791,
            "띔": 792,
            "띕": 793,
            "띠": 794,
            "띡": 795,
            "띤": 796,
            "띨": 797,
            "띰": 798,
            "띱": 799,
            "띵": 800,
            "라": 801,
            "락": 802,
            "란": 803,
            "랄": 804,
            "람": 805,
            "랍": 806,
            "랏": 807,
            "랐": 808,
            "랑": 809,
            "랖": 810,
            "랗": 811,
            "래": 812,
            "랙": 813,
            "랜": 814,
            "랠": 815,
            "램": 816,
            "랩": 817,
            "랫": 818,
            "랬": 819,
            "랭": 820,
            "랲": 821,
            "랳": 822,
            "랴": 823,
            "략": 824,
            "랸": 825,
            "럄": 826,
            "럅": 827,
            "량": 828,
            "럤": 829,
            "러": 830,
            "럭": 831,
            "런": 832,
            "럴": 833,
            "럼": 834,
            "럽": 835,
            "럿": 836,
            "렀": 837,
            "렁": 838,
            "렇": 839,
            "레": 840,
            "렉": 841,
            "렌": 842,
            "렐": 843,
            "렘": 844,
            "렙": 845,
            "렛": 846,
            "렜": 847,
            "렝": 848,
            "려": 849,
            "력": 850,
            "련": 851,
            "렬": 852,
            "렴": 853,
            "렵": 854,
            "렷": 855,
            "렸": 856,
            "령": 857,
            "례": 858,
            "롄": 859,
            "로": 860,
            "록": 861,
            "론": 862,
            "롣": 863,
            "롤": 864,
            "롬": 865,
            "롭": 866,
            "롯": 867,
            "롱": 868,
            "롸": 869,
            "롹": 870,
            "롼": 871,
            "뢰": 872,
            "뢴": 873,
            "룀": 874,
            "룅": 875,
            "료": 876,
            "룔": 877,
            "룝": 878,
            "룟": 879,
            "룡": 880,
            "루": 881,
            "룩": 882,
            "룬": 883,
            "룰": 884,
            "룸": 885,
            "룹": 886,
            "룻": 887,
            "룽": 888,
            "뤄": 889,
            "뤘": 890,
            "뤼": 891,
            "뤽": 892,
            "륀": 893,
            "륄": 894,
            "륌": 895,
            "륍": 896,
            "륏": 897,
            "류": 898,
            "륙": 899,
            "륜": 900,
            "률": 901,
            "륨": 902,
            "륩": 903,
            "륫": 904,
            "륭": 905,
            "르": 906,
            "륵": 907,
            "른": 908,
            "를": 909,
            "름": 910,
            "릅": 911,
            "릇": 912,
            "릉": 913,
            "릍": 914,
            "릎": 915,
            "릐": 916,
            "리": 917,
            "릭": 918,
            "린": 919,
            "릳": 920,
            "릴": 921,
            "림": 922,
            "립": 923,
            "릿": 924,
            "링": 925,
            "마": 926,
            "막": 927,
            "만": 928,
            "맍": 929,
            "많": 930,
            "맏": 931,
            "말": 932,
            "맑": 933,
            "맘": 934,
            "맙": 935,
            "맛": 936,
            "망": 937,
            "맞": 938,
            "맟": 939,
            "맡": 940,
            "맣": 941,
            "매": 942,
            "맥": 943,
            "맨": 944,
            "맫": 945,
            "맬": 946,
            "맴": 947,
            "맵": 948,
            "맷": 949,
            "맸": 950,
            "맹": 951,
            "맺": 952,
            "먀": 953,
            "먄": 954,
            "먕": 955,
            "머": 956,
            "먹": 957,
            "먼": 958,
            "멀": 959,
            "멈": 960,
            "멉": 961,
            "멋": 962,
            "멍": 963,
            "멎": 964,
            "멓": 965,
            "메": 966,
            "멕": 967,
            "멘": 968,
            "멜": 969,
            "멤": 970,
            "멥": 971,
            "멧": 972,
            "멨": 973,
            "멩": 974,
            "멫": 975,
            "며": 976,
            "멱": 977,
            "면": 978,
            "멸": 979,
            "몀": 980,
            "몃": 981,
            "몄": 982,
            "명": 983,
            "몆": 984,
            "몇": 985,
            "몐": 986,
            "모": 987,
            "목": 988,
            "몫": 989,
            "몬": 990,
            "몰": 991,
            "몸": 992,
            "몹": 993,
            "못": 994,
            "몽": 995,
            "뫔": 996,
            "뫼": 997,
            "묀": 998,
            "묄": 999,
            "묏": 1000,
            "묘": 1001,
            "묙": 1002,
            "묜": 1003,
            "묠": 1004,
            "묫": 1005,
            "무": 1006,
            "묵": 1007,
            "묶": 1008,
            "문": 1009,
            "묻": 1010,
            "물": 1011,
            "묽": 1012,
            "묾": 1013,
            "뭄": 1014,
            "뭅": 1015,
            "뭇": 1016,
            "뭉": 1017,
            "뭍": 1018,
            "뭐": 1019,
            "뭔": 1020,
            "뭘": 1021,
            "뭡": 1022,
            "뭣": 1023,
            "뭥": 1024,
            "뭬": 1025,
            "뭰": 1026,
            "뮈": 1027,
            "뮌": 1028,
            "뮐": 1029,
            "뮤": 1030,
            "뮨": 1031,
            "뮬": 1032,
            "뮴": 1033,
            "므": 1034,
            "믄": 1035,
            "믈": 1036,
            "믐": 1037,
            "믓": 1038,
            "믕": 1039,
            "믜": 1040,
            "미": 1041,
            "믹": 1042,
            "민": 1043,
            "믽": 1044,
            "믿": 1045,
            "밀": 1046,
            "밈": 1047,
            "밉": 1048,
            "밋": 1049,
            "밌": 1050,
            "밍": 1051,
            "밎": 1052,
            "밑": 1053,
            "바": 1054,
            "박": 1055,
            "밖": 1056,
            "반": 1057,
            "받": 1058,
            "발": 1059,
            "밝": 1060,
            "밞": 1061,
            "밟": 1062,
            "밤": 1063,
            "밥": 1064,
            "밧": 1065,
            "방": 1066,
            "밪": 1067,
            "밫": 1068,
            "밭": 1069,
            "배": 1070,
            "백": 1071,
            "밴": 1072,
            "밸": 1073,
            "뱀": 1074,
            "뱁": 1075,
            "뱃": 1076,
            "뱄": 1077,
            "뱅": 1078,
            "뱉": 1079,
            "뱌": 1080,
            "뱍": 1081,
            "뱐": 1082,
            "뱔": 1083,
            "뱡": 1084,
            "버": 1085,
            "벅": 1086,
            "번": 1087,
            "벋": 1088,
            "벌": 1089,
            "벍": 1090,
            "범": 1091,
            "법": 1092,
            "벗": 1093,
            "벙": 1094,
            "벚": 1095,
            "벛": 1096,
            "베": 1097,
            "벡": 1098,
            "벤": 1099,
            "벧": 1100,
            "벨": 1101,
            "벰": 1102,
            "벱": 1103,
            "벳": 1104,
            "벴": 1105,
            "벵": 1106,
            "벼": 1107,
            "벽": 1108,
            "변": 1109,
            "별": 1110,
            "볌": 1111,
            "볍": 1112,
            "볏": 1113,
            "볐": 1114,
            "병": 1115,
            "볔": 1116,
            "볕": 1117,
            "볘": 1118,
            "볜": 1119,
            "보": 1120,
            "복": 1121,
            "볶": 1122,
            "본": 1123,
            "볼": 1124,
            "봄": 1125,
            "봅": 1126,
            "봇": 1127,
            "봉": 1128,
            "봐": 1129,
            "봣": 1130,
            "봤": 1131,
            "봬": 1132,
            "봰": 1133,
            "뵀": 1134,
            "뵈": 1135,
            "뵉": 1136,
            "뵌": 1137,
            "뵐": 1138,
            "뵘": 1139,
            "뵙": 1140,
            "뵜": 1141,
            "뵤": 1142,
            "뵨": 1143,
            "부": 1144,
            "북": 1145,
            "붂": 1146,
            "분": 1147,
            "붇": 1148,
            "불": 1149,
            "붉": 1150,
            "붐": 1151,
            "붑": 1152,
            "붓": 1153,
            "붕": 1154,
            "붙": 1155,
            "붜": 1156,
            "붬": 1157,
            "붸": 1158,
            "뷔": 1159,
            "뷘": 1160,
            "뷜": 1161,
            "뷰": 1162,
            "뷱": 1163,
            "뷴": 1164,
            "뷸": 1165,
            "븀": 1166,
            "브": 1167,
            "븍": 1168,
            "븐": 1169,
            "블": 1170,
            "비": 1171,
            "빅": 1172,
            "빈": 1173,
            "빌": 1174,
            "빍": 1175,
            "빔": 1176,
            "빕": 1177,
            "빗": 1178,
            "빙": 1179,
            "빚": 1180,
            "빛": 1181,
            "빠": 1182,
            "빡": 1183,
            "빤": 1184,
            "빨": 1185,
            "빯": 1186,
            "빰": 1187,
            "빱": 1188,
            "빳": 1189,
            "빴": 1190,
            "빵": 1191,
            "빻": 1192,
            "빼": 1193,
            "빽": 1194,
            "뺀": 1195,
            "뺄": 1196,
            "뺌": 1197,
            "뺍": 1198,
            "뺏": 1199,
            "뺐": 1200,
            "뺑": 1201,
            "뺘": 1202,
            "뺨": 1203,
            "뺴": 1204,
            "뺼": 1205,
            "뻐": 1206,
            "뻑": 1207,
            "뻔": 1208,
            "뻗": 1209,
            "뻘": 1210,
            "뻣": 1211,
            "뻤": 1212,
            "뻥": 1213,
            "뻬": 1214,
            "뻿": 1215,
            "뼈": 1216,
            "뼉": 1217,
            "뼐": 1218,
            "뼘": 1219,
            "뼛": 1220,
            "뼜": 1221,
            "뽀": 1222,
            "뽁": 1223,
            "뽂": 1224,
            "뽄": 1225,
            "뽈": 1226,
            "뽐": 1227,
            "뽑": 1228,
            "뽕": 1229,
            "뾰": 1230,
            "뾱": 1231,
            "뿅": 1232,
            "뿌": 1233,
            "뿍": 1234,
            "뿐": 1235,
            "뿔": 1236,
            "뿜": 1237,
            "뿝": 1238,
            "뿡": 1239,
            "쀼": 1240,
            "쁘": 1241,
            "쁜": 1242,
            "쁠": 1243,
            "쁨": 1244,
            "쁩": 1245,
            "삐": 1246,
            "삑": 1247,
            "삔": 1248,
            "삘": 1249,
            "삠": 1250,
            "삡": 1251,
            "삣": 1252,
            "삥": 1253,
            "사": 1254,
            "삭": 1255,
            "삯": 1256,
            "산": 1257,
            "살": 1258,
            "삵": 1259,
            "삶": 1260,
            "삷": 1261,
            "삼": 1262,
            "삽": 1263,
            "삿": 1264,
            "샀": 1265,
            "상": 1266,
            "샅": 1267,
            "샇": 1268,
            "새": 1269,
            "색": 1270,
            "샌": 1271,
            "샐": 1272,
            "샒": 1273,
            "샘": 1274,
            "샙": 1275,
            "샛": 1276,
            "샜": 1277,
            "생": 1278,
            "샤": 1279,
            "샥": 1280,
            "샨": 1281,
            "샬": 1282,
            "샴": 1283,
            "샵": 1284,
            "샷": 1285,
            "샹": 1286,
            "샾": 1287,
            "섀": 1288,
            "섐": 1289,
            "섑": 1290,
            "서": 1291,
            "석": 1292,
            "섞": 1293,
            "선": 1294,
            "섣": 1295,
            "설": 1296,
            "섥": 1297,
            "섦": 1298,
            "섫": 1299,
            "섬": 1300,
            "섭": 1301,
            "섯": 1302,
            "섰": 1303,
            "성": 1304,
            "섶": 1305,
            "세": 1306,
            "섹": 1307,
            "센": 1308,
            "셀": 1309,
            "셈": 1310,
            "셉": 1311,
            "셋": 1312,
            "셌": 1313,
            "셍": 1314,
            "셔": 1315,
            "셕": 1316,
            "션": 1317,
            "셜": 1318,
            "셤": 1319,
            "셥": 1320,
            "셧": 1321,
            "셨": 1322,
            "셩": 1323,
            "셰": 1324,
            "셴": 1325,
            "셸": 1326,
            "솁": 1327,
            "솅": 1328,
            "소": 1329,
            "속": 1330,
            "솎": 1331,
            "손": 1332,
            "솓": 1333,
            "솔": 1334,
            "솖": 1335,
            "솜": 1336,
            "솝": 1337,
            "솟": 1338,
            "송": 1339,
            "솥": 1340,
            "솨": 1341,
            "솬": 1342,
            "솽": 1343,
            "쇄": 1344,
            "쇘": 1345,
            "쇠": 1346,
            "쇤": 1347,
            "쇨": 1348,
            "쇳": 1349,
            "쇼": 1350,
            "쇽": 1351,
            "숀": 1352,
            "숄": 1353,
            "숍": 1354,
            "숏": 1355,
            "숑": 1356,
            "수": 1357,
            "숙": 1358,
            "순": 1359,
            "숟": 1360,
            "술": 1361,
            "숨": 1362,
            "숩": 1363,
            "숫": 1364,
            "숭": 1365,
            "숯": 1366,
            "숱": 1367,
            "숲": 1368,
            "숳": 1369,
            "숴": 1370,
            "쉈": 1371,
            "쉐": 1372,
            "쉑": 1373,
            "쉔": 1374,
            "쉘": 1375,
            "쉥": 1376,
            "쉨": 1377,
            "쉬": 1378,
            "쉭": 1379,
            "쉰": 1380,
            "쉴": 1381,
            "쉼": 1382,
            "쉽": 1383,
            "쉿": 1384,
            "슁": 1385,
            "슈": 1386,
            "슉": 1387,
            "슌": 1388,
            "슐": 1389,
            "슘": 1390,
            "슙": 1391,
            "슛": 1392,
            "슝": 1393,
            "스": 1394,
            "슥": 1395,
            "슨": 1396,
            "슬": 1397,
            "슭": 1398,
            "슴": 1399,
            "습": 1400,
            "슷": 1401,
            "승": 1402,
            "슽": 1403,
            "시": 1404,
            "식": 1405,
            "싞": 1406,
            "신": 1407,
            "싣": 1408,
            "실": 1409,
            "싨": 1410,
            "싫": 1411,
            "심": 1412,
            "십": 1413,
            "싯": 1414,
            "싰": 1415,
            "싱": 1416,
            "싶": 1417,
            "싸": 1418,
            "싹": 1419,
            "싼": 1420,
            "싿": 1421,
            "쌀": 1422,
            "쌈": 1423,
            "쌉": 1424,
            "쌌": 1425,
            "쌍": 1426,
            "쌓": 1427,
            "쌔": 1428,
            "쌕": 1429,
            "쌘": 1430,
            "쌤": 1431,
            "쌨": 1432,
            "쌩": 1433,
            "쌰": 1434,
            "썅": 1435,
            "써": 1436,
            "썩": 1437,
            "썪": 1438,
            "썬": 1439,
            "썰": 1440,
            "썸": 1441,
            "썹": 1442,
            "썻": 1443,
            "썼": 1444,
            "썽": 1445,
            "쎄": 1446,
            "쎈": 1447,
            "쎌": 1448,
            "쎔": 1449,
            "쎕": 1450,
            "쎗": 1451,
            "쎴": 1452,
            "쎼": 1453,
            "쏘": 1454,
            "쏙": 1455,
            "쏜": 1456,
            "쏟": 1457,
            "쏠": 1458,
            "쏨": 1459,
            "쏩": 1460,
            "쏭": 1461,
            "쏴": 1462,
            "쏸": 1463,
            "쐈": 1464,
            "쐐": 1465,
            "쐬": 1466,
            "쐰": 1467,
            "쐴": 1468,
            "쑈": 1469,
            "쑝": 1470,
            "쑤": 1471,
            "쑥": 1472,
            "쑨": 1473,
            "쑬": 1474,
            "쑵": 1475,
            "쑹": 1476,
            "쒀": 1477,
            "쓩": 1478,
            "쓰": 1479,
            "쓱": 1480,
            "쓴": 1481,
            "쓷": 1482,
            "쓸": 1483,
            "씀": 1484,
            "씁": 1485,
            "씌": 1486,
            "씐": 1487,
            "씨": 1488,
            "씩": 1489,
            "씬": 1490,
            "씰": 1491,
            "씸": 1492,
            "씹": 1493,
            "씻": 1494,
            "씽": 1495,
            "아": 1496,
            "악": 1497,
            "안": 1498,
            "앉": 1499,
            "않": 1500,
            "알": 1501,
            "앎": 1502,
            "앓": 1503,
            "암": 1504,
            "압": 1505,
            "앗": 1506,
            "았": 1507,
            "앙": 1508,
            "앚": 1509,
            "앝": 1510,
            "앞": 1511,
            "앟": 1512,
            "애": 1513,
            "액": 1514,
            "앤": 1515,
            "앨": 1516,
            "앰": 1517,
            "앱": 1518,
            "앳": 1519,
            "앴": 1520,
            "앵": 1521,
            "앻": 1522,
            "야": 1523,
            "약": 1524,
            "얀": 1525,
            "얄": 1526,
            "얆": 1527,
            "얇": 1528,
            "얌": 1529,
            "얍": 1530,
            "얏": 1531,
            "양": 1532,
            "얕": 1533,
            "얗": 1534,
            "얘": 1535,
            "어": 1536,
            "억": 1537,
            "언": 1538,
            "얹": 1539,
            "얺": 1540,
            "얻": 1541,
            "얼": 1542,
            "얽": 1543,
            "엄": 1544,
            "업": 1545,
            "없": 1546,
            "엇": 1547,
            "었": 1548,
            "엉": 1549,
            "엊": 1550,
            "엌": 1551,
            "엎": 1552,
            "에": 1553,
            "엑": 1554,
            "엓": 1555,
            "엔": 1556,
            "엗": 1557,
            "엘": 1558,
            "엠": 1559,
            "엡": 1560,
            "엣": 1561,
            "엥": 1562,
            "여": 1563,
            "역": 1564,
            "엮": 1565,
            "연": 1566,
            "열": 1567,
            "엷": 1568,
            "염": 1569,
            "엽": 1570,
            "엾": 1571,
            "엿": 1572,
            "였": 1573,
            "영": 1574,
            "옅": 1575,
            "옆": 1576,
            "옇": 1577,
            "예": 1578,
            "옌": 1579,
            "옐": 1580,
            "옘": 1581,
            "옙": 1582,
            "옛": 1583,
            "옜": 1584,
            "오": 1585,
            "옥": 1586,
            "온": 1587,
            "옫": 1588,
            "올": 1589,
            "옭": 1590,
            "옮": 1591,
            "옯": 1592,
            "옳": 1593,
            "옴": 1594,
            "옵": 1595,
            "옷": 1596,
            "옹": 1597,
            "옻": 1598,
            "와": 1599,
            "왁": 1600,
            "완": 1601,
            "왈": 1602,
            "왐": 1603,
            "왑": 1604,
            "왓": 1605,
            "왔": 1606,
            "왕": 1607,
            "왘": 1608,
            "왜": 1609,
            "왝": 1610,
            "왠": 1611,
            "왤": 1612,
            "왬": 1613,
            "왯": 1614,
            "왱": 1615,
            "외": 1616,
            "왹": 1617,
            "왼": 1618,
            "욀": 1619,
            "욃": 1620,
            "욋": 1621,
            "욌": 1622,
            "요": 1623,
            "욕": 1624,
            "욘": 1625,
            "욜": 1626,
            "욤": 1627,
            "욥": 1628,
            "욧": 1629,
            "용": 1630,
            "욫": 1631,
            "욯": 1632,
            "우": 1633,
            "욱": 1634,
            "운": 1635,
            "울": 1636,
            "욹": 1637,
            "욺": 1638,
            "움": 1639,
            "웁": 1640,
            "웂": 1641,
            "웃": 1642,
            "웅": 1643,
            "워": 1644,
            "웍": 1645,
            "원": 1646,
            "웑": 1647,
            "웒": 1648,
            "웓": 1649,
            "월": 1650,
            "웖": 1651,
            "웗": 1652,
            "웜": 1653,
            "웝": 1654,
            "웟": 1655,
            "웠": 1656,
            "웡": 1657,
            "웤": 1658,
            "웥": 1659,
            "웧": 1660,
            "웨": 1661,
            "웩": 1662,
            "웬": 1663,
            "웰": 1664,
            "웸": 1665,
            "웹": 1666,
            "웻": 1667,
            "위": 1668,
            "윅": 1669,
            "윈": 1670,
            "윌": 1671,
            "윔": 1672,
            "윕": 1673,
            "윗": 1674,
            "윙": 1675,
            "윟": 1676,
            "유": 1677,
            "육": 1678,
            "윤": 1679,
            "율": 1680,
            "윭": 1681,
            "윰": 1682,
            "윱": 1683,
            "윳": 1684,
            "융": 1685,
            "윷": 1686,
            "으": 1687,
            "윽": 1688,
            "은": 1689,
            "을": 1690,
            "읊": 1691,
            "음": 1692,
            "읍": 1693,
            "읎": 1694,
            "읏": 1695,
            "응": 1696,
            "읕": 1697,
            "읖": 1698,
            "읗": 1699,
            "의": 1700,
            "읜": 1701,
            "읠": 1702,
            "읨": 1703,
            "읩": 1704,
            "읭": 1705,
            "이": 1706,
            "익": 1707,
            "읶": 1708,
            "읷": 1709,
            "인": 1710,
            "읹": 1711,
            "읻": 1712,
            "일": 1713,
            "읽": 1714,
            "잃": 1715,
            "임": 1716,
            "입": 1717,
            "잇": 1718,
            "있": 1719,
            "잉": 1720,
            "잊": 1721,
            "잌": 1722,
            "잎": 1723,
            "자": 1724,
            "작": 1725,
            "잔": 1726,
            "잖": 1727,
            "잗": 1728,
            "잘": 1729,
            "잠": 1730,
            "잡": 1731,
            "잣": 1732,
            "잤": 1733,
            "장": 1734,
            "잦": 1735,
            "재": 1736,
            "잭": 1737,
            "잰": 1738,
            "잴": 1739,
            "잼": 1740,
            "잽": 1741,
            "잿": 1742,
            "쟀": 1743,
            "쟁": 1744,
            "쟈": 1745,
            "쟌": 1746,
            "쟎": 1747,
            "쟝": 1748,
            "쟤": 1749,
            "쟨": 1750,
            "저": 1751,
            "적": 1752,
            "전": 1753,
            "젆": 1754,
            "절": 1755,
            "젊": 1756,
            "젋": 1757,
            "점": 1758,
            "접": 1759,
            "젓": 1760,
            "젔": 1761,
            "정": 1762,
            "젖": 1763,
            "제": 1764,
            "젝": 1765,
            "젠": 1766,
            "젤": 1767,
            "젨": 1768,
            "젬": 1769,
            "젭": 1770,
            "젯": 1771,
            "젱": 1772,
            "젶": 1773,
            "져": 1774,
            "젹": 1775,
            "젼": 1776,
            "졀": 1777,
            "졈": 1778,
            "졋": 1779,
            "졌": 1780,
            "졍": 1781,
            "졔": 1782,
            "졘": 1783,
            "조": 1784,
            "족": 1785,
            "존": 1786,
            "졸": 1787,
            "좀": 1788,
            "좁": 1789,
            "종": 1790,
            "좆": 1791,
            "좇": 1792,
            "좋": 1793,
            "좌": 1794,
            "좍": 1795,
            "좐": 1796,
            "좡": 1797,
            "좨": 1798,
            "좼": 1799,
            "죄": 1800,
            "죈": 1801,
            "죌": 1802,
            "죕": 1803,
            "죗": 1804,
            "죙": 1805,
            "죠": 1806,
            "죡": 1807,
            "죤": 1808,
            "죵": 1809,
            "주": 1810,
            "죽": 1811,
            "준": 1812,
            "줄": 1813,
            "줌": 1814,
            "줍": 1815,
            "줏": 1816,
            "중": 1817,
            "줘": 1818,
            "줚": 1819,
            "줬": 1820,
            "줴": 1821,
            "쥐": 1822,
            "쥑": 1823,
            "쥔": 1824,
            "쥘": 1825,
            "쥠": 1826,
            "쥬": 1827,
            "쥰": 1828,
            "쥴": 1829,
            "쥼": 1830,
            "즈": 1831,
            "즉": 1832,
            "즌": 1833,
            "즐": 1834,
            "즘": 1835,
            "즙": 1836,
            "증": 1837,
            "즡": 1838,
            "즹": 1839,
            "지": 1840,
            "직": 1841,
            "짂": 1842,
            "진": 1843,
            "짆": 1844,
            "짇": 1845,
            "질": 1846,
            "짊": 1847,
            "짐": 1848,
            "집": 1849,
            "짒": 1850,
            "짓": 1851,
            "징": 1852,
            "짖": 1853,
            "짙": 1854,
            "짚": 1855,
            "짜": 1856,
            "짝": 1857,
            "짠": 1858,
            "짢": 1859,
            "짤": 1860,
            "짦": 1861,
            "짧": 1862,
            "짬": 1863,
            "짭": 1864,
            "짰": 1865,
            "짱": 1866,
            "째": 1867,
            "짼": 1868,
            "쨈": 1869,
            "쨉": 1870,
            "쨋": 1871,
            "쨌": 1872,
            "쨍": 1873,
            "쨔": 1874,
            "쨩": 1875,
            "쨰": 1876,
            "쩌": 1877,
            "쩍": 1878,
            "쩐": 1879,
            "쩔": 1880,
            "쩜": 1881,
            "쩝": 1882,
            "쩠": 1883,
            "쩡": 1884,
            "쩨": 1885,
            "쪄": 1886,
            "쪘": 1887,
            "쪼": 1888,
            "쪽": 1889,
            "쫀": 1890,
            "쫄": 1891,
            "쫌": 1892,
            "쫑": 1893,
            "쫒": 1894,
            "쫓": 1895,
            "쫘": 1896,
            "쫙": 1897,
            "쫴": 1898,
            "쬈": 1899,
            "쬐": 1900,
            "쬔": 1901,
            "쬘": 1902,
            "쬬": 1903,
            "쭈": 1904,
            "쭉": 1905,
            "쭌": 1906,
            "쭐": 1907,
            "쭘": 1908,
            "쭙": 1909,
            "쭝": 1910,
            "쭤": 1911,
            "쭸": 1912,
            "쮠": 1913,
            "쮸": 1914,
            "쯍": 1915,
            "쯔": 1916,
            "쯘": 1917,
            "쯤": 1918,
            "쯧": 1919,
            "쯩": 1920,
            "찌": 1921,
            "찍": 1922,
            "찐": 1923,
            "찔": 1924,
            "찜": 1925,
            "찝": 1926,
            "찟": 1927,
            "찡": 1928,
            "찢": 1929,
            "찧": 1930,
            "차": 1931,
            "착": 1932,
            "찬": 1933,
            "찮": 1934,
            "찯": 1935,
            "찰": 1936,
            "참": 1937,
            "찹": 1938,
            "찻": 1939,
            "찼": 1940,
            "창": 1941,
            "찾": 1942,
            "찿": 1943,
            "챂": 1944,
            "채": 1945,
            "책": 1946,
            "챈": 1947,
            "챌": 1948,
            "챔": 1949,
            "챕": 1950,
            "챗": 1951,
            "챘": 1952,
            "챙": 1953,
            "챠": 1954,
            "챤": 1955,
            "챨": 1956,
            "챰": 1957,
            "챱": 1958,
            "처": 1959,
            "척": 1960,
            "천": 1961,
            "첞": 1962,
            "철": 1963,
            "첨": 1964,
            "첩": 1965,
            "첫": 1966,
            "첬": 1967,
            "청": 1968,
            "체": 1969,
            "첵": 1970,
            "첸": 1971,
            "첼": 1972,
            "쳄": 1973,
            "쳅": 1974,
            "쳇": 1975,
            "쳉": 1976,
            "쳌": 1977,
            "쳐": 1978,
            "쳑": 1979,
            "쳔": 1980,
            "쳘": 1981,
            "쳤": 1982,
            "쳥": 1983,
            "쳬": 1984,
            "초": 1985,
            "촉": 1986,
            "촌": 1987,
            "촐": 1988,
            "촘": 1989,
            "촙": 1990,
            "촛": 1991,
            "총": 1992,
            "촤": 1993,
            "촥": 1994,
            "촨": 1995,
            "촬": 1996,
            "촹": 1997,
            "최": 1998,
            "쵤": 1999,
            "쵸": 2000,
            "춈": 2001,
            "추": 2002,
            "축": 2003,
            "춘": 2004,
            "출": 2005,
            "춡": 2006,
            "춣": 2007,
            "춤": 2008,
            "춥": 2009,
            "춧": 2010,
            "충": 2011,
            "춫": 2012,
            "춰": 2013,
            "춴": 2014,
            "췃": 2015,
            "췄": 2016,
            "췌": 2017,
            "췍": 2018,
            "췐": 2019,
            "취": 2020,
            "췬": 2021,
            "췿": 2022,
            "츄": 2023,
            "츅": 2024,
            "츈": 2025,
            "츌": 2026,
            "츙": 2027,
            "츠": 2028,
            "측": 2029,
            "츤": 2030,
            "츨": 2031,
            "츰": 2032,
            "층": 2033,
            "칀": 2034,
            "치": 2035,
            "칙": 2036,
            "친": 2037,
            "칠": 2038,
            "칡": 2039,
            "칢": 2040,
            "침": 2041,
            "칩": 2042,
            "칫": 2043,
            "칭": 2044,
            "카": 2045,
            "칵": 2046,
            "칸": 2047,
            "칼": 2048,
            "캄": 2049,
            "캅": 2050,
            "캇": 2051,
            "캉": 2052,
            "캐": 2053,
            "캑": 2054,
            "캔": 2055,
            "캘": 2056,
            "캠": 2057,
            "캡": 2058,
            "캣": 2059,
            "캤": 2060,
            "캥": 2061,
            "캪": 2062,
            "캬": 2063,
            "커": 2064,
            "컥": 2065,
            "컨": 2066,
            "컫": 2067,
            "컬": 2068,
            "컴": 2069,
            "컵": 2070,
            "컷": 2071,
            "컸": 2072,
            "컹": 2073,
            "컽": 2074,
            "케": 2075,
            "켁": 2076,
            "켄": 2077,
            "켈": 2078,
            "켐": 2079,
            "켑": 2080,
            "켓": 2081,
            "켕": 2082,
            "켙": 2083,
            "켜": 2084,
            "켠": 2085,
            "켤": 2086,
            "켭": 2087,
            "켯": 2088,
            "켰": 2089,
            "코": 2090,
            "콕": 2091,
            "콘": 2092,
            "콜": 2093,
            "콤": 2094,
            "콥": 2095,
            "콧": 2096,
            "콩": 2097,
            "콰": 2098,
            "콱": 2099,
            "콴": 2100,
            "콸": 2101,
            "쾀": 2102,
            "쾃": 2103,
            "쾅": 2104,
            "쾌": 2105,
            "쾡": 2106,
            "쾨": 2107,
            "쾰": 2108,
            "쾽": 2109,
            "쿄": 2110,
            "쿠": 2111,
            "쿡": 2112,
            "쿤": 2113,
            "쿨": 2114,
            "쿰": 2115,
            "쿱": 2116,
            "쿳": 2117,
            "쿵": 2118,
            "쿼": 2119,
            "쿽": 2120,
            "퀀": 2121,
            "퀄": 2122,
            "퀌": 2123,
            "퀏": 2124,
            "퀘": 2125,
            "퀠": 2126,
            "퀭": 2127,
            "퀴": 2128,
            "퀵": 2129,
            "퀸": 2130,
            "퀼": 2131,
            "큅": 2132,
            "큇": 2133,
            "큐": 2134,
            "큔": 2135,
            "큘": 2136,
            "큠": 2137,
            "크": 2138,
            "큭": 2139,
            "큰": 2140,
            "클": 2141,
            "큼": 2142,
            "큽": 2143,
            "큿": 2144,
            "킁": 2145,
            "키": 2146,
            "킥": 2147,
            "킨": 2148,
            "킬": 2149,
            "킴": 2150,
            "킵": 2151,
            "킷": 2152,
            "킹": 2153,
            "타": 2154,
            "탁": 2155,
            "탄": 2156,
            "탇": 2157,
            "탈": 2158,
            "탉": 2159,
            "탐": 2160,
            "탑": 2161,
            "탓": 2162,
            "탔": 2163,
            "탕": 2164,
            "태": 2165,
            "택": 2166,
            "탠": 2167,
            "탣": 2168,
            "탤": 2169,
            "탬": 2170,
            "탭": 2171,
            "탯": 2172,
            "탰": 2173,
            "탱": 2174,
            "탸": 2175,
            "탹": 2176,
            "턔": 2177,
            "터": 2178,
            "턱": 2179,
            "턴": 2180,
            "털": 2181,
            "텀": 2182,
            "텁": 2183,
            "텃": 2184,
            "텄": 2185,
            "텅": 2186,
            "테": 2187,
            "텍": 2188,
            "텐": 2189,
            "텔": 2190,
            "템": 2191,
            "텝": 2192,
            "텟": 2193,
            "텡": 2194,
            "텦": 2195,
            "텨": 2196,
            "텹": 2197,
            "텼": 2198,
            "톄": 2199,
            "톈": 2200,
            "토": 2201,
            "톡": 2202,
            "톤": 2203,
            "톨": 2204,
            "톰": 2205,
            "톱": 2206,
            "톳": 2207,
            "통": 2208,
            "톺": 2209,
            "톼": 2210,
            "퇀": 2211,
            "퇘": 2212,
            "퇴": 2213,
            "툇": 2214,
            "툥": 2215,
            "투": 2216,
            "툭": 2217,
            "툰": 2218,
            "툴": 2219,
            "툶": 2220,
            "툼": 2221,
            "툽": 2222,
            "툿": 2223,
            "퉁": 2224,
            "퉈": 2225,
            "퉜": 2226,
            "튀": 2227,
            "튄": 2228,
            "튈": 2229,
            "튐": 2230,
            "튓": 2231,
            "튕": 2232,
            "튜": 2233,
            "튠": 2234,
            "튤": 2235,
            "튬": 2236,
            "튭": 2237,
            "트": 2238,
            "특": 2239,
            "튼": 2240,
            "튿": 2241,
            "틀": 2242,
            "틈": 2243,
            "틉": 2244,
            "틋": 2245,
            "틍": 2246,
            "틔": 2247,
            "틜": 2248,
            "티": 2249,
            "틱": 2250,
            "틴": 2251,
            "틸": 2252,
            "팀": 2253,
            "팁": 2254,
            "팃": 2255,
            "팅": 2256,
            "파": 2257,
            "팍": 2258,
            "팎": 2259,
            "판": 2260,
            "팔": 2261,
            "팜": 2262,
            "팝": 2263,
            "팟": 2264,
            "팠": 2265,
            "팡": 2266,
            "팥": 2267,
            "패": 2268,
            "팩": 2269,
            "팬": 2270,
            "팰": 2271,
            "팸": 2272,
            "팹": 2273,
            "팻": 2274,
            "팼": 2275,
            "팽": 2276,
            "퍅": 2277,
            "퍈": 2278,
            "퍼": 2279,
            "퍽": 2280,
            "펀": 2281,
            "펄": 2282,
            "펌": 2283,
            "펍": 2284,
            "펏": 2285,
            "펐": 2286,
            "펑": 2287,
            "페": 2288,
            "펙": 2289,
            "펜": 2290,
            "펠": 2291,
            "펨": 2292,
            "펩": 2293,
            "펫": 2294,
            "펭": 2295,
            "펴": 2296,
            "펵": 2297,
            "편": 2298,
            "펼": 2299,
            "폄": 2300,
            "폅": 2301,
            "폈": 2302,
            "평": 2303,
            "폐": 2304,
            "폔": 2305,
            "포": 2306,
            "폭": 2307,
            "폰": 2308,
            "폴": 2309,
            "폼": 2310,
            "폽": 2311,
            "폿": 2312,
            "퐁": 2313,
            "퐈": 2314,
            "푀": 2315,
            "푄": 2316,
            "표": 2317,
            "푝": 2318,
            "푠": 2319,
            "푭": 2320,
            "푯": 2321,
            "푱": 2322,
            "푸": 2323,
            "푹": 2324,
            "푼": 2325,
            "풀": 2326,
            "풂": 2327,
            "품": 2328,
            "풉": 2329,
            "풋": 2330,
            "풍": 2331,
            "풒": 2332,
            "풴": 2333,
            "퓌": 2334,
            "퓨": 2335,
            "퓰": 2336,
            "퓸": 2337,
            "프": 2338,
            "픈": 2339,
            "플": 2340,
            "픔": 2341,
            "픕": 2342,
            "픙": 2343,
            "피": 2344,
            "픽": 2345,
            "핀": 2346,
            "필": 2347,
            "핌": 2348,
            "핍": 2349,
            "핏": 2350,
            "핑": 2351,
            "하": 2352,
            "학": 2353,
            "핚": 2354,
            "핛": 2355,
            "한": 2356,
            "핟": 2357,
            "할": 2358,
            "핥": 2359,
            "함": 2360,
            "합": 2361,
            "핫": 2362,
            "핬": 2363,
            "항": 2364,
            "핮": 2365,
            "핱": 2366,
            "핲": 2367,
            "핳": 2368,
            "해": 2369,
            "핵": 2370,
            "핸": 2371,
            "핼": 2372,
            "햄": 2373,
            "햅": 2374,
            "햇": 2375,
            "했": 2376,
            "행": 2377,
            "햊": 2378,
            "햐": 2379,
            "햑": 2380,
            "햔": 2381,
            "햘": 2382,
            "햤": 2383,
            "향": 2384,
            "햬": 2385,
            "햿": 2386,
            "헀": 2387,
            "허": 2388,
            "헉": 2389,
            "헌": 2390,
            "헐": 2391,
            "험": 2392,
            "헙": 2393,
            "헛": 2394,
            "헝": 2395,
            "헤": 2396,
            "헥": 2397,
            "헨": 2398,
            "헬": 2399,
            "헴": 2400,
            "헵": 2401,
            "헷": 2402,
            "헸": 2403,
            "헹": 2404,
            "혀": 2405,
            "혁": 2406,
            "현": 2407,
            "혈": 2408,
            "혐": 2409,
            "협": 2410,
            "혓": 2411,
            "혔": 2412,
            "형": 2413,
            "혜": 2414,
            "혭": 2415,
            "호": 2416,
            "혹": 2417,
            "혼": 2418,
            "홀": 2419,
            "홈": 2420,
            "홉": 2421,
            "홋": 2422,
            "홍": 2423,
            "홑": 2424,
            "화": 2425,
            "확": 2426,
            "홖": 2427,
            "환": 2428,
            "활": 2429,
            "홤": 2430,
            "홥": 2431,
            "홧": 2432,
            "황": 2433,
            "홰": 2434,
            "횃": 2435,
            "횄": 2436,
            "횅": 2437,
            "회": 2438,
            "획": 2439,
            "횐": 2440,
            "횓": 2441,
            "횔": 2442,
            "횜": 2443,
            "횟": 2444,
            "횠": 2445,
            "횡": 2446,
            "횢": 2447,
            "효": 2448,
            "횰": 2449,
            "횽": 2450,
            "후": 2451,
            "훅": 2452,
            "훈": 2453,
            "훌": 2454,
            "훍": 2455,
            "훑": 2456,
            "훓": 2457,
            "훔": 2458,
            "훕": 2459,
            "훗": 2460,
            "훙": 2461,
            "훠": 2462,
            "훤": 2463,
            "훨": 2464,
            "훼": 2465,
            "휀": 2466,
            "휄": 2467,
            "휑": 2468,
            "휘": 2469,
            "휙": 2470,
            "휜": 2471,
            "휠": 2472,
            "휨": 2473,
            "휩": 2474,
            "휫": 2475,
            "휭": 2476,
            "휴": 2477,
            "휸": 2478,
            "휼": 2479,
            "흄": 2480,
            "흉": 2481,
            "흐": 2482,
            "흑": 2483,
            "흔": 2484,
            "흗": 2485,
            "흘": 2486,
            "흙": 2487,
            "흠": 2488,
            "흡": 2489,
            "흣": 2490,
            "흥": 2491,
            "흨": 2492,
            "흩": 2493,
            "흫": 2494,
            "희": 2495,
            "흰": 2496,
            "흽": 2497,
            "히": 2498,
            "힉": 2499,
            "힌": 2500,
            "힐": 2501,
            "힘": 2502,
            "힙": 2503,
            "힛": 2504,
            "힜": 2505,
            "힝": 2506,
            "▁이": 2507,
            "▁있": 2508,
            "으로": 2509,
            "▁대": 2510,
            "▁지": 2511,
            "했다": 2512,
            "▁수": 2513,
            "▁전": 2514,
            "▁1": 2515,
            "▁기": 2516,
            "에서": 2517,
            "▁사": 2518,
            "▁2": 2519,
            "▁등": 2520,
            "▁가": 2521,
            "▁것": 2522,
            "▁시": 2523,
            "▁있다": 2524,
            "하는": 2525,
            "▁한": 2526,
            "▁정": 2527,
            "▁공": 2528,
            "▁제": 2529,
            "하고": 2530,
            "이다": 2531,
            "▁보": 2532,
            "▁위": 2533,
            "▁경": 2534,
            "▁중": 2535,
            "▁주": 2536,
            "▁국": 2537,
            "▁인": 2538,
            "▁상": 2539,
            "▁아": 2540,
            "▁부": 2541,
            "▁그": 2542,
            "▁자": 2543,
            "다고": 2544,
            "00": 2545,
            "▁관": 2546,
            "▁3": 2547,
            "▁다": 2548,
            "▁최": 2549,
            "▁개": 2550,
            "▁나": 2551,
            "▁비": 2552,
            "▁일": 2553,
            "▁서": 2554,
            "▁유": 2555,
            "▁의": 2556,
            "▁조": 2557,
            "▁소": 2558,
            "니다": 2559,
            "▁통": 2560,
            "▁내": 2561,
            "▁오": 2562,
            "▁20": 2563,
            "▁신": 2564,
            "▁모": 2565,
            "▁연": 2566,
            "▁하": 2567,
            "▁고": 2568,
            "이라": 2569,
            "▁확": 2570,
            "▁발": 2571,
            "▁미": 2572,
            "▁해": 2573,
            "▁방": 2574,
            "▁선": 2575,
            "▁예": 2576,
            "▁구": 2577,
            "▁지난": 2578,
            "▁있는": 2579,
            "▁여": 2580,
            "▁말": 2581,
            "▁5": 2582,
            "▁강": 2583,
            "▁4": 2584,
            "한다": 2585,
            "까지": 2586,
            "▁진": 2587,
            "▁마": 2588,
            "▁현": 2589,
            "▁않": 2590,
            "▁우": 2591,
            "▁실": 2592,
            "▁분": 2593,
            "▁만": 2594,
            "면서": 2595,
            "▁세": 2596,
            "▁생": 2597,
            "▁거": 2598,
            "▁안": 2599,
            "▁추": 2600,
            "▁성": 2601,
            "▁문": 2602,
            "▁계": 2603,
            "▁도": 2604,
            "▁원": 2605,
            "▁코": 2606,
            "▁바": 2607,
            "▁영": 2608,
            "▁동": 2609,
            "▁따": 2610,
            "▁없": 2611,
            "▁재": 2612,
            "▁교": 2613,
            "▁반": 2614,
            "부터": 2615,
            "▁어": 2616,
            "다는": 2617,
            "▁밝": 2618,
            "▁매": 2619,
            "▁대한": 2620,
            "▁장": 2621,
            "▁6": 2622,
            "적으로": 2623,
            "▁적": 2624,
            "▁통해": 2625,
            "▁위해": 2626,
            "▁올": 2627,
            "지만": 2628,
            "▁더": 2629,
            "습니다": 2630,
            "들이": 2631,
            "▁결": 2632,
            "▁것으로": 2633,
            "▁스": 2634,
            "▁당": 2635,
            "▁투": 2636,
            "▁특": 2637,
            "적인": 2638,
            "19": 2639,
            "▁때": 2640,
            "▁회": 2641,
            "▁김": 2642,
            "▁밝혔": 2643,
            "▁설": 2644,
            "▁받": 2645,
            "▁감": 2646,
            "▁차": 2647,
            "▁한국": 2648,
            "이라고": 2649,
            "로나": 2650,
            "하기": 2651,
            "▁사업": 2652,
            "된다": 2653,
            "▁과": 2654,
            "▁밝혔다": 2655,
            "▁불": 2656,
            "▁후": 2657,
            "▁노": 2658,
            "▁배": 2659,
            "▁출": 2660,
            "▁코로나": 2661,
            "에게": 2662,
            "▁증": 2663,
            "에는": 2664,
            "▁7": 2665,
            "▁말했다": 2666,
            "▁대표": 2667,
            "▁활": 2668,
            "▁서울": 2669,
            "▁무": 2670,
            "됐다": 2671,
            "▁단": 2672,
            "▁금": 2673,
            "▁입": 2674,
            "▁지원": 2675,
            "▁건": 2676,
            "장은": 2677,
            "▁기업": 2678,
            "▁참": 2679,
            "▁높": 2680,
            "▁백": 2681,
            "▁총": 2682,
            "▁업": 2683,
            "▁했다": 2684,
            "▁달": 2685,
            "었다": 2686,
            "▁협": 2687,
            "자는": 2688,
            "▁운": 2689,
            "▁청": 2690,
            "하게": 2691,
            "▁역": 2692,
            "▁또": 2693,
            "▁위한": 2694,
            "▁직": 2695,
            "▁평": 2696,
            "▁관련": 2697,
            "▁판": 2698,
            "▁포": 2699,
            "▁8": 2700,
            "▁10": 2701,
            "비스": 2702,
            "▁많": 2703,
            "▁진행": 2704,
            "▁투자": 2705,
            "되는": 2706,
            "▁접": 2707,
            "▁국민": 2708,
            "▁검": 2709,
            "▁정부": 2710,
            "▁대해": 2711,
            "들의": 2712,
            "▁산": 2713,
            "억원": 2714,
            "▁지역": 2715,
            "▁가능": 2716,
            "▁양": 2717,
            "▁함": 2718,
            "▁물": 2719,
            "▁개발": 2720,
            "▁집": 2721,
            "▁앞": 2722,
            "▁같": 2723,
            "▁열": 2724,
            "▁프": 2725,
            "▁9": 2726,
            "도록": 2727,
            "▁규": 2728,
            "▁국내": 2729,
            "▁백신": 2730,
            "▁필": 2731,
            "▁202": 2732,
            "▁코로나19": 2733,
            "▁학": 2734,
            "▁행": 2735,
            "▁알": 2736,
            "▁미국": 2737,
            "▁변": 2738,
            "위원": 2739,
            "▁임": 2740,
            "▁요": 2741,
            "▁시장": 2742,
            "▁등을": 2743,
            "▁기술": 2744,
            "▁이번": 2745,
            "▁민": 2746,
            "000": 2747,
            "▁A": 2748,
            "▁점": 2749,
            "▁저": 2750,
            "▁이어": 2751,
            "▁게": 2752,
            "▁이상": 2753,
            "▁작": 2754,
            "▁함께": 2755,
            "▁법": 2756,
            "에도": 2757,
            "들은": 2758,
            "▁계획": 2759,
            "라고": 2760,
            "▁들": 2761,
            "▁초": 2762,
            "▁화": 2763,
            "▁피": 2764,
            "▁우리": 2765,
            "▁환": 2766,
            "▁데": 2767,
            "▁할": 2768,
            "▁남": 2769,
            "▁서비스": 2770,
            "▁있다고": 2771,
            "▁두": 2772,
            "다며": 2773,
            "▁종": 2774,
            "▁외": 2775,
            "▁관계": 2776,
            "보다": 2777,
            "▁간": 2778,
            "사를": 2779,
            "▁예정": 2780,
            "▁연구": 2781,
            "▁본": 2782,
            "▁목": 2783,
            "통령": 2784,
            "▁각": 2785,
            "▁맞": 2786,
            "▁경우": 2787,
            "▁의원": 2788,
            "▁체": 2789,
            "▁지난해": 2790,
            "▁파": 2791,
            "사업": 2792,
            "▁온": 2793,
            "▁대통령": 2794,
            "▁올해": 2795,
            "▁새": 2796,
            "▁경제": 2797,
            "▁약": 2798,
            "르면": 2799,
            "장을": 2800,
            "▁S": 2801,
            "▁필요": 2802,
            "▁취": 2803,
            "▁이후": 2804,
            "▁제공": 2805,
            "▁때문": 2806,
            "▁디": 2807,
            "하며": 2808,
            "에서는": 2809,
            "▁카": 2810,
            "▁문제": 2811,
            "▁대상": 2812,
            "기업": 2813,
            "라인": 2814,
            "하겠": 2815,
            "▁플": 2816,
            "성을": 2817,
            "▁다양": 2818,
            "▁명": 2819,
            "▁아니": 2820,
            "▁상황": 2821,
            "▁늘": 2822,
            "▁따르면": 2823,
            "▁운영": 2824,
            "하지": 2825,
            "▁최근": 2826,
            "▁세계": 2827,
            "▁201": 2828,
            "▁사용": 2829,
            "▁하는": 2830,
            "았다": 2831,
            "▁12": 2832,
            "▁이용": 2833,
            "▁것이라고": 2834,
            "▁교육": 2835,
            "▁추진": 2836,
            "▁합": 2837,
            "▁사람": 2838,
            "▁따라": 2839,
            "▁글": 2840,
            "▁광": 2841,
            "▁완": 2842,
            "▁논": 2843,
            "▁확대": 2844,
            "▁것이": 2845,
            "▁되": 2846,
            "시스": 2847,
            "기를": 2848,
            "▁심": 2849,
            "▁창": 2850,
            "경제": 2851,
            "력을": 2852,
            "▁처": 2853,
            "▁충": 2854,
            "▁삼": 2855,
            "했다고": 2856,
            "▁뉴": 2857,
            "▁같은": 2858,
            "자가": 2859,
            "▁박": 2860,
            "▁채": 2861,
            "사는": 2862,
            "해야": 2863,
            "▁다양한": 2864,
            "성이": 2865,
            "▁증가": 2866,
            "▁프로": 2867,
            "▁이날": 2868,
            "하면": 2869,
            "지를": 2870,
            "▁시작": 2871,
            "▁설명": 2872,
            "▁전문": 2873,
            "▁못": 2874,
            "▁기준": 2875,
            "센터": 2876,
            "회의": 2877,
            "리는": 2878,
            "▁에": 2879,
            "▁크": 2880,
            "▁현재": 2881,
            "만원": 2882,
            "▁참여": 2883,
            "장이": 2884,
            "스트": 2885,
            "으며": 2886,
            "였다": 2887,
            "▁사회": 2888,
            "▁30": 2889,
            "▁줄": 2890,
            "라는": 2891,
            "▁활용": 2892,
            "▁11": 2893,
            "▁정책": 2894,
            "▁결과": 2895,
            "▁치": 2896,
            "하다": 2897,
            "▁접종": 2898,
            "▁산업": 2899,
            "▁경기": 2900,
            "▁언": 2901,
            "이터": 2902,
            "▁19": 2903,
            "주당": 2904,
            "▁손": 2905,
            "▁금융": 2906,
            "▁식": 2907,
            "지는": 2908,
            "▁상승": 2909,
            "로벌": 2910,
            "대로": 2911,
            "▁넘": 2912,
            "졌다": 2913,
            "▁호": 2914,
            "▁가장": 2915,
            "상을": 2916,
            "▁발표": 2917,
            "▁있도록": 2918,
            "▁L": 2919,
            "▁메": 2920,
            "화를": 2921,
            "▁리": 2922,
            "리를": 2923,
            "▁국가": 2924,
            "한다고": 2925,
            "▁생산": 2926,
            "▁C": 2927,
            "▁담": 2928,
            "동산": 2929,
            "▁거래": 2930,
            "▁윤": 2931,
            "▁것이다": 2932,
            "▁한다": 2933,
            "▁향": 2934,
            "들을": 2935,
            "▁독": 2936,
            "▁속": 2937,
            "하면서": 2938,
            "이라며": 2939,
            "▁근": 2940,
            "▁들어": 2941,
            "▁평가": 2942,
            "▁기대": 2943,
            "랫폼": 2944,
            "▁생각": 2945,
            "▁규모": 2946,
            "▁글로벌": 2947,
            "은행": 2948,
            "▁발생": 2949,
            "▁K": 2950,
            "레이": 2951,
            "이나": 2952,
            "▁효": 2953,
            "정을": 2954,
            "▁대비": 2955,
            "▁중국": 2956,
            "는데": 2957,
            "▁최대": 2958,
            "▁공급": 2959,
            "▁후보": 2960,
            "▁뒤": 2961,
            "▁편": 2962,
            "통신": 2963,
            "▁만들": 2964,
            "▁제품": 2965,
            "▁순": 2966,
            "▁분야": 2967,
            "▁고객": 2968,
            "▁준": 2969,
            "사가": 2970,
            "▁토": 2971,
            "위원회": 2972,
            "▁지속": 2973,
            "입니다": 2974,
            "되고": 2975,
            "▁예정이다": 2976,
            "▁관계자는": 2977,
            "▁누": 2978,
            "▁전망": 2979,
            "연구": 2980,
            "서는": 2981,
            "기에": 2982,
            "▁것은": 2983,
            "▁좋": 2984,
            "▁최고": 2985,
            "▁있어": 2986,
            "▁E": 2987,
            "▁모두": 2988,
            "▁돌": 2989,
            "▁브": 2990,
            "▁큰": 2991,
            "▁확인": 2992,
            "▁커": 2993,
            "▁국민의": 2994,
            "▁2021": 2995,
            "▁강화": 2996,
            "기술": 2997,
            "▁기록": 2998,
            "마트": 2999,
            "▁15": 3000,
            "이라는": 3001,
            "▁복": 3002,
            "▁살": 3003,
            "러스": 3004,
            "▁농": 3005,
            "▁적용": 3006,
            "▁네": 3007,
            "▁될": 3008,
            "▁플랫폼": 3009,
            "▁판매": 3010,
            "▁강조": 3011,
            "▁측": 3012,
            "이고": 3013,
            "▁수준": 3014,
            "로운": 3015,
            "▁바이": 3016,
            "▁표": 3017,
            "▁적극": 3018,
            "▁안전": 3019,
            "▁북": 3020,
            "▁급": 3021,
            "자의": 3022,
            "▁추가": 3023,
            "부는": 3024,
            "개발": 3025,
            "▁가격": 3026,
            "▁분석": 3027,
            "지고": 3028,
            "▁권": 3029,
            "▁마련": 3030,
            "▁삼성": 3031,
            "교육": 3032,
            "▁콘": 3033,
            "▁다른": 3034,
            "산업": 3035,
            "▁친": 3036,
            "▁하고": 3037,
            "▁매출": 3038,
            "▁부동산": 3039,
            "▁성장": 3040,
            "▁형": 3041,
            "▁기존": 3042,
            "치를": 3043,
            "▁온라인": 3044,
            "▁항": 3045,
            "랜드": 3046,
            "▁구축": 3047,
            "▁환경": 3048,
            "▁뉴시스": 3049,
            "에서도": 3050,
            "▁계획이다": 3051,
            "▁드": 3052,
            "지원": 3053,
            "▁I": 3054,
            "▁소비": 3055,
            "▁많은": 3056,
            "0년": 3057,
            "▁아이": 3058,
            "▁있다는": 3059,
            "페이": 3060,
            "7일": 3061,
            "▁절": 3062,
            "▁경쟁": 3063,
            "▁특히": 3064,
            "수는": 3065,
            "▁찾": 3066,
            "▁오는": 3067,
            "▁탄": 3068,
            "바이": 3069,
            "지털": 3070,
            "안을": 3071,
            "▁로": 3072,
            "▁타": 3073,
            "기관": 3074,
            "▁공감": 3075,
            "▁책": 3076,
            "▁음": 3077,
            "원은": 3078,
            "▁내용": 3079,
            "▁때문에": 3080,
            "리고": 3081,
            "▁미래": 3082,
            "▁기반": 3083,
            "▁공동": 3084,
            "▁이를": 3085,
            "▁아니라": 3086,
            "▁개선": 3087,
            "▁갖": 3088,
            "너지": 3089,
            "▁정보": 3090,
            "▁등의": 3091,
            "했습니다": 3092,
            "▁질": 3093,
            "도를": 3094,
            "▁피해": 3095,
            "혁신": 3096,
            "거나": 3097,
            "▁사실": 3098,
            "▁13": 3099,
            "▁18": 3100,
            "라이": 3101,
            "▁정치": 3102,
            "▁걸": 3103,
            "자를": 3104,
            "▁나타": 3105,
            "이는": 3106,
            "운데": 3107,
            "▁등이": 3108,
            "텐츠": 3109,
            "시장": 3110,
            "▁홍": 3111,
            "시간": 3112,
            "▁협력": 3113,
            "환경": 3114,
            "▁것을": 3115,
            "▁사진": 3116,
            "▁주요": 3117,
            "▁잘": 3118,
            "▁시간": 3119,
            "▁확보": 3120,
            "▁허": 3121,
            "▁장관": 3122,
            "▁폭": 3123,
            "▁가운데": 3124,
            "▁지적": 3125,
            "▁포함": 3126,
            "▁설명했다": 3127,
            "가는": 3128,
            "▁디지털": 3129,
            "▁지금": 3130,
            "▁그러": 3131,
            "▁여러": 3132,
            "▁전국": 3133,
            "▁확진": 3134,
            "분기": 3135,
            "사의": 3136,
            "▁새로운": 3137,
            "들에게": 3138,
            "▁상품": 3139,
            "▁번": 3140,
            "▁높은": 3141,
            "카오": 3142,
            "▁어려": 3143,
            "▁오후": 3144,
            "▁대표는": 3145,
            "▁중심": 3146,
            "의를": 3147,
            "▁24": 3148,
            "▁해당": 3149,
            "▁부산": 3150,
            "▁보고": 3151,
            "▁예상": 3152,
            "그램": 3153,
            "▁없는": 3154,
            "▁하나": 3155,
            "하겠다고": 3156,
            "▁6월": 3157,
            "▁100": 3158,
            "▁조사": 3159,
            "▁출시": 3160,
            "▁된다": 3161,
            "1일": 3162,
            "▁중요": 3163,
            "▁14": 3164,
            "기가": 3165,
            "▁업무": 3166,
            "▁한다고": 3167,
            "▁국민의힘": 3168,
            "명이": 3169,
            "회를": 3170,
            "▁25": 3171,
            "▁있다며": 3172,
            "▁선정": 3173,
            "▁힘": 3174,
            "▁애": 3175,
            "▁공개": 3176,
            "리가": 3177,
            "▁판단": 3178,
            "▁해외": 3179,
            "▁정상": 3180,
            "학교": 3181,
            "리아": 3182,
            "▁0": 3183,
            "▁이런": 3184,
            "▁자신": 3185,
            "▁군": 3186,
            "▁스마트": 3187,
            "파트": 3188,
            "약을": 3189,
            "씨는": 3190,
            "정보": 3191,
            "▁면": 3192,
            "▁테": 3193,
            "▁대응": 3194,
            "왔다": 3195,
            "시설": 3196,
            "언론": 3197,
            "▁SK": 3198,
            "▁목표": 3199,
            "▁콘텐츠": 3200,
            "▁낮": 3201,
            "▁활동": 3202,
            "▁결정": 3203,
            "▁전체": 3204,
            "▁있을": 3205,
            "▁않는": 3206,
            "▁게임": 3207,
            "▁수도": 3208,
            "▁철": 3209,
            "▁용": 3210,
            "▁트": 3211,
            "▁영향": 3212,
            "▁빠": 3213,
            "▁대상으로": 3214,
            "▁대선": 3215,
            "▁구성": 3216,
            "▁모든": 3217,
            "▁곳": 3218,
            "▁데이터": 3219,
            "▁전기": 3220,
            "주택": 3221,
            "했고": 3222,
            "처럼": 3223,
            "▁감염": 3224,
            "도로": 3225,
            "반기": 3226,
            "▁주택": 3227,
            "▁검찰": 3228,
            "▁알려": 3229,
            "20": 3230,
            "▁개인": 3231,
            "▁열린": 3232,
            "▁M": 3233,
            "시는": 3234,
            "투자": 3235,
            "▁눈": 3236,
            "▁과정": 3237,
            "▁핵": 3238,
            "관리": 3239,
            "▁이유": 3240,
            "▁수요": 3241,
            "▁강조했다": 3242,
            "▁첫": 3243,
            "▁직접": 3244,
            "▁신규": 3245,
            "▁반영": 3246,
            "▁국제": 3247,
            "시아": 3248,
            "겠다고": 3249,
            "원이": 3250,
            "▁앞으로": 3251,
            "▁도입": 3252,
            "▁공감언론": 3253,
            "▁카카오": 3254,
            "도가": 3255,
            "▁사이": 3256,
            "제로": 3257,
            "▁B": 3258,
            "세대": 3259,
            "▁우려": 3260,
            "▁G": 3261,
            "▁그는": 3262,
            "▁문화": 3263,
            "▁태": 3264,
            "명을": 3265,
            "원을": 3266,
            "▁기간": 3267,
            "▁등에": 3268,
            "▁방식": 3269,
            "개월": 3270,
            "▁폐": 3271,
            "▁관리": 3272,
            "▁발전": 3273,
            "금을": 3274,
            "도체": 3275,
            "했던": 3276,
            "▁영업": 3277,
            "▁효과": 3278,
            "▁청년": 3279,
            "스템": 3280,
            "▁오전": 3281,
            "▁송": 3282,
            "자인": 3283,
            "▁승": 3284,
            "기도": 3285,
            "▁현대": 3286,
            "이어": 3287,
            "▁사건": 3288,
            "▁시스템": 3289,
            "지역": 3290,
            "▁50": 3291,
            "▁이미": 3292,
            "불어": 3293,
            "라며": 3294,
            "▁관심": 3295,
            "▁그런": 3296,
            "▁가상": 3297,
            "▁일부": 3298,
            "▁패": 3299,
            "▁전략": 3300,
            "▁주장": 3301,
            "▁방역": 3302,
            "▁만큼": 3303,
            "19년": 3304,
            "들과": 3305,
            "▁LG": 3306,
            "▁7월": 3307,
            "6일": 3308,
            "▁지난달": 3309,
            "▁브랜드": 3310,
            "▁혐": 3311,
            "▁공공": 3312,
            "▁혁신": 3313,
            "▁다시": 3314,
            "▁늘어": 3315,
            "▁있습니다": 3316,
            "▁클": 3317,
            "위를": 3318,
            "▁하지만": 3319,
            "▁의원은": 3320,
            "▁시행": 3321,
            "▁일본": 3322,
            "▁야": 3323,
            "▁된": 3324,
            "▁시민": 3325,
            "기로": 3326,
            "제를": 3327,
            "8년": 3328,
            "▁당시": 3329,
            "▁프로그램": 3330,
            "▁유지": 3331,
            "▁다음": 3332,
            "세를": 3333,
            "▁P": 3334,
            "▁버": 3335,
            "▁요구": 3336,
            "민주당": 3337,
            "▁준비": 3338,
            "▁경영": 3339,
            "▁이에": 3340,
            "▁고려": 3341,
            "▁또는": 3342,
            "▁이뤄": 3343,
            "▁5월": 3344,
            "▁방문": 3345,
            "TV": 3346,
            "▁자동": 3347,
            "증권": 3348,
            "▁보인": 3349,
            "▁성공": 3350,
            "▁아파트": 3351,
            "▁휴": 3352,
            "한다는": 3353,
            "▁전환": 3354,
            "인이": 3355,
            "▁2019년": 3356,
            "▁학생": 3357,
            "장의": 3358,
            "▁업체": 3359,
            "▁민주당": 3360,
            "▁AI": 3361,
            "스는": 3362,
            "▁따른": 3363,
            "▁건강": 3364,
            "▁비롯": 3365,
            "▁서비스를": 3366,
            "인을": 3367,
            "▁확산": 3368,
            "스크": 3369,
            "그룹": 3370,
            "▁극": 3371,
            "▁역할": 3372,
            "▁월": 3373,
            "▁핵심": 3374,
            "▁범": 3375,
            "▁경찰": 3376,
            "▁더불어": 3377,
            "계를": 3378,
            "▁200": 3379,
            "▁의견": 3380,
            "▁선보": 3381,
            "▁반도체": 3382,
            "식을": 3383,
            "▁블": 3384,
            "하다고": 3385,
            "으면": 3386,
            "▁날": 3387,
            "▁병": 3388,
            "▁많이": 3389,
            "정책": 3390,
            "▁28": 3391,
            "▁인터": 3392,
            "재인": 3393,
            "일부터": 3394,
            "▁참석": 3395,
            "▁논의": 3396,
            "▁처음": 3397,
            "주시": 3398,
            "▁국회": 3399,
            "▁업계": 3400,
            "▁나온": 3401,
            "기는": 3402,
            "30": 3403,
            "▁한미": 3404,
            "▁조성": 3405,
            "났다": 3406,
            "하기로": 3407,
            "▁대학": 3408,
            "▁D": 3409,
            "▁육": 3410,
            "▁않고": 3411,
            "▁보유": 3412,
            "량을": 3413,
            "▁벌": 3414,
            "▁전문가": 3415,
            "▁막": 3416,
            "▁감소": 3417,
            "▁신청": 3418,
            "이버": 3419,
            "▁각각": 3420,
            "▁노력": 3421,
            "자산": 3422,
            "▁지급": 3423,
            "▁더욱": 3424,
            "일까지": 3425,
            "인트": 3426,
            "▁않은": 3427,
            "SG": 3428,
            "▁갈": 3429,
            "점을": 3430,
            "해서": 3431,
            "▁가치": 3432,
            "자로": 3433,
            "▁기본": 3434,
            "시에": 3435,
            "▁없이": 3436,
            "▁역시": 3437,
            "거래": 3438,
            "▁탄소": 3439,
            "인은": 3440,
            "달러": 3441,
            "사회": 3442,
            "▁기능": 3443,
            "▁자체": 3444,
            "▁현장": 3445,
            "▁예방": 3446,
            "▁동안": 3447,
            "전자": 3448,
            "▁희": 3449,
            "금융": 3450,
            "▁북한": 3451,
            "▁일반": 3452,
            "▁받아": 3453,
            "사와": 3454,
            "주는": 3455,
            "주의": 3456,
            "▁계속": 3457,
            "▁비판": 3458,
            "▁머": 3459,
            "▁4월": 3460,
            "▁암": 3461,
            "▁23": 3462,
            "▁축": 3463,
            "▁있고": 3464,
            "드는": 3465,
            "▁특별": 3466,
            "▁기관": 3467,
            "▁40": 3468,
            "▁쓰": 3469,
            "이익": 3470,
            "정부": 3471,
            "하여": 3472,
            "▁책임": 3473,
            "▁집중": 3474,
            "▁개최": 3475,
            "▁모습": 3476,
            "▁만들어": 3477,
            "▁별": 3478,
            "원에": 3479,
            "▁캠": 3480,
            "▁상태": 3481,
            "▁스타": 3482,
            "서를": 3483,
            "▁향후": 3484,
            "▁중소": 3485,
            "문화": 3486,
            "료를": 3487,
            "▁있었": 3488,
            "원의": 3489,
            "▁전했다": 3490,
            "▁N": 3491,
            "▁성과": 3492,
            "▁부분": 3493,
            "소득": 3494,
            "스를": 3495,
            "▁회복": 3496,
            "▁3월": 3497,
            "▁주민": 3498,
            "▁등으로": 3499,
            "▁의미": 3500,
            "5년": 3501,
            "▁수사": 3502,
            "▁크게": 3503,
            "▁전년": 3504,
            "▁키": 3505,
            "가를": 3506,
            "렇게": 3507,
            "▁여성": 3508,
            "▁보는": 3509,
            "수를": 3510,
            "대를": 3511,
            "▁제주": 3512,
            "▁응": 3513,
            "▁안정": 3514,
            "▁문재인": 3515,
            "▁앞서": 3516,
            "▁부담": 3517,
            "▁경험": 3518,
            "▁검토": 3519,
            "력이": 3520,
            "에선": 3521,
            "▁또한": 3522,
            "▁중인": 3523,
            "▁하락": 3524,
            "▁도시": 3525,
            "▁모델": 3526,
            "▁됐다": 3527,
            "▁최초": 3528,
            "이번": 3529,
            "▁공정": 3530,
            "통신사": 3531,
            "자들이": 3532,
            "▁베": 3533,
            "▁설치": 3534,
            "수가": 3535,
            "▁언론": 3536,
            "화폐": 3537,
            "▁아닌": 3538,
            "▁대통령은": 3539,
            "▁느": 3540,
            "▁볼": 3541,
            "트를": 3542,
            "▁제작": 3543,
            "대표": 3544,
            "터리": 3545,
            "▁필요한": 3546,
            "▁위원": 3547,
            "▁먹": 3548,
            "년간": 3549,
            "▁물론": 3550,
            "▁것이라며": 3551,
            "▁학교": 3552,
            "조사": 3553,
            "▁내년": 3554,
            "▁의료": 3555,
            "으나": 3556,
            "▁생활": 3557,
            "▁수익": 3558,
            "안전": 3559,
            "라도": 3560,
            "7년": 3561,
            "지가": 3562,
            "▁뉴시스통신사": 3563,
            "▁중앙": 3564,
            "▁실적": 3565,
            "▁기획": 3566,
            "▁사회적": 3567,
            "▁중이다": 3568,
            "렸다": 3569,
            "본부": 3570,
            "▁잡": 3571,
            "이며": 3572,
            "▁홈": 3573,
            "▁때문이다": 3574,
            "▁8월": 3575,
            "▁본격": 3576,
            "▁해결": 3577,
            "▁경기도": 3578,
            "▁공간": 3579,
            "▁더불어민주당": 3580,
            "인의": 3581,
            "업체": 3582,
            "▁나오": 3583,
            "▁사업을": 3584,
            "▁없다": 3585,
            "는다": 3586,
            "업을": 3587,
            "루션": 3588,
            "▁사례": 3589,
            "▁품": 3590,
            "이션": 3591,
            "▁16": 3592,
            "▁착": 3593,
            "▁ESG": 3594,
            "11": 3595,
            "▁노동": 3596,
            "▁활성": 3597,
            "▁정부가": 3598,
            "서비스": 3599,
            "권을": 3600,
            "선을": 3601,
            "분의": 3602,
            "업계": 3603,
            "▁싶": 3604,
            "▁컨": 3605,
            "도시": 3606,
            "▁끝": 3607,
            "▁전기차": 3608,
            "▁인천": 3609,
            "▁22": 3610,
            "▁지방": 3611,
            "▁이전": 3612,
            "▁변화": 3613,
            "▁규제": 3614,
            "▁네이버": 3615,
            "▁구매": 3616,
            "▁평균": 3617,
            "▁제시": 3618,
            "▁제한": 3619,
            "지에": 3620,
            "▁17": 3621,
            "▁보호": 3622,
            "▁공모": 3623,
            "▁장기": 3624,
            "니까": 3625,
            "▁정도": 3626,
            "▁방송": 3627,
            "▁않았": 3628,
            "되지": 3629,
            "▁수출": 3630,
            "▁선택": 3631,
            "▁혐의": 3632,
            "했지만": 3633,
            "▁친환경": 3634,
            "▁답": 3635,
            "▁체결": 3636,
            "▁골": 3637,
            "▁길": 3638,
            "▁이는": 3639,
            "▁영상": 3640,
            "바일": 3641,
            "▁풀": 3642,
            "트코": 3643,
            "▁격": 3644,
            "▁치료": 3645,
            "▁사전": 3646,
            "장과": 3647,
            "▁의혹": 3648,
            "솔루션": 3649,
            "명의": 3650,
            "▁이동": 3651,
            "▁통한": 3652,
            "▁어떤": 3653,
            "▁넘어": 3654,
            "▁대구": 3655,
            "억원을": 3656,
            "▁관련해": 3657,
            "▁실시": 3658,
            "움을": 3659,
            "▁관광": 3660,
            "코리아": 3661,
            "▁떨": 3662,
            "이었다": 3663,
            "▁돈": 3664,
            "▁고용": 3665,
            "▁우수": 3666,
            "▁중심으로": 3667,
            "▁라": 3668,
            "▁덧": 3669,
            "▁여행": 3670,
            "▁입장": 3671,
            "▁자리": 3672,
            "▁만에": 3673,
            "▁논란": 3674,
            "이에": 3675,
            "▁방침": 3676,
            "▁상장": 3677,
            "▁인사": 3678,
            "▁되는": 3679,
            "단체": 3680,
            "▁제기": 3681,
            "발전": 3682,
            "▁천": 3683,
            "▁거리": 3684,
            "▁존": 3685,
            "▁앱": 3686,
            "▁밀": 3687,
            "▁덧붙": 3688,
            "▁쉽": 3689,
            "▁신고": 3690,
            "펀드": 3691,
            "▁이야": 3692,
            "▁맡": 3693,
            "▁건설": 3694,
            "▁제조": 3695,
            "▁보인다": 3696,
            "밖에": 3697,
            "▁과학": 3698,
            "▁광주": 3699,
            "▁가족": 3700,
            "▁민간": 3701,
            "▁얼": 3702,
            "규모": 3703,
            "소를": 3704,
            "이자": 3705,
            "▁60": 3706,
            "▁찾아": 3707,
            "지로": 3708,
            "50": 3709,
            "부가": 3710,
            "▁기술을": 3711,
            "▁울": 3712,
            "▁받고": 3713,
            "도는": 3714,
            "민국": 3715,
            "▁다만": 3716,
            "▁개정": 3717,
            "진다": 3718,
            "성과": 3719,
            "바이오": 3720,
            "▁지지": 3721,
            "계획": 3722,
            "▁보면": 3723,
            "▁좋은": 3724,
            "▁인정": 3725,
            "▁오늘": 3726,
            "▁있게": 3727,
            "▁인수": 3728,
            "사로": 3729,
            "▁행정": 3730,
            "▁떨어": 3731,
            "한편": 3732,
            "▁높아": 3733,
            "▁에너지": 3734,
            "▁위험": 3735,
            "롯데": 3736,
            "동안": 3737,
            "▁가입": 3738,
            "▁아직": 3739,
            "▁1년": 3740,
            "▁2018년": 3741,
            "▁받은": 3742,
            "시키": 3743,
            "▁있으며": 3744,
            "▁역할을": 3745,
            "▁한다는": 3746,
            "▁가능한": 3747,
            "▁소비자": 3748,
            "▁가능성이": 3749,
            "▁즐": 3750,
            "▁공식": 3751,
            "와대": 3752,
            "▁이재": 3753,
            "▁감사": 3754,
            "▁탈": 3755,
            "포인트": 3756,
            "▁어떻": 3757,
            "▁촉": 3758,
            "▁설립": 3759,
            "▁보내": 3760,
            "▁일자": 3761,
            "르게": 3762,
            "영상": 3763,
            "▁우선": 3764,
            "▁과정에서": 3765,
            "▁나온다": 3766,
            "▁대출": 3767,
            "10": 3768,
            "▁라이": 3769,
            "가가": 3770,
            "▁대한민국": 3771,
            "보를": 3772,
            "▁배터리": 3773,
            "원에서": 3774,
            "▁이달": 3775,
            "감을": 3776,
            "▁비트코": 3777,
            "합니다": 3778,
            "▁마음": 3779,
            "이었": 3780,
            "▁악": 3781,
            "▁수도권": 3782,
            "▁모바일": 3783,
            "▁서울시": 3784,
            "▁29": 3785,
            "▁비교": 3786,
            "▁종합": 3787,
            "▁몰": 3788,
            "▁인상": 3789,
            "▁긴": 3790,
            "▁잠": 3791,
            "▁17일": 3792,
            "단계": 3793,
            "▁직원": 3794,
            "▁레": 3795,
            "과의": 3796,
            "▁인공": 3797,
            "▁어떻게": 3798,
            "별로": 3799,
            "혜택": 3800,
            "▁보여": 3801,
            "▁공유": 3802,
            "치는": 3803,
            "▁풍": 3804,
            "▁하반기": 3805,
            "▁9월": 3806,
            "▁부족": 3807,
            "부를": 3808,
            "▁시대": 3809,
            "품을": 3810,
            "▁주식": 3811,
            "▁하루": 3812,
            "▁프로젝": 3813,
            "▁덧붙였다": 3814,
            "하지만": 3815,
            "▁만나": 3816,
            "18": 3817,
            "전을": 3818,
            "▁소재": 3819,
            "이트": 3820,
            "▁있지만": 3821,
            "▁구조": 3822,
            "사에": 3823,
            "▁얻": 3824,
            "▁부문": 3825,
            "▁쿠": 3826,
            "▁자산": 3827,
            "▁정부는": 3828,
            "▁교수는": 3829,
            "세가": 3830,
            "▁A씨": 3831,
            "▁주목": 3832,
            "하려": 3833,
            "▁황": 3834,
            "하다는": 3835,
            "▁최종": 3836,
            "상공": 3837,
            "▁사고": 3838,
            "들도": 3839,
            "▁이제": 3840,
            "물을": 3841,
            "나라": 3842,
            "디어": 3843,
            "전히": 3844,
            "원으로": 3845,
            "▁압": 3846,
            "▁두고": 3847,
            "▁방법": 3848,
            "▁완화": 3849,
            "▁자동차": 3850,
            "▁차량": 3851,
            "▁수소": 3852,
            "2년": 3853,
            "버스": 3854,
            "플레이": 3855,
            "프라": 3856,
            "▁지정": 3857,
            "겠다는": 3858,
            "▁27일": 3859,
            "▁외국": 3860,
            "지난": 3861,
            "▁있었다": 3862,
            "▁이해": 3863,
            "3년": 3864,
            "소년": 3865,
            "▁대부": 3866,
            "▁상당": 3867,
            "▁정부의": 3868,
            "▁청와대": 3869,
            "쇼핑": 3870,
            "했다는": 3871,
            "에너지": 3872,
            "과학": 3873,
            "▁2차": 3874,
            "▁시설": 3875,
            "가능": 3876,
            "도의": 3877,
            "▁계약": 3878,
            "▁떠": 3879,
            "▁교수": 3880,
            "명으로": 3881,
            "▁실제": 3882,
            "▁먼": 3883,
            "▁기록했다": 3884,
            "▁1만": 3885,
            "협회": 3886,
            "▁뜻": 3887,
            "하도록": 3888,
            "▁언급": 3889,
            "동을": 3890,
            "장에": 3891,
            "자와": 3892,
            "▁나타났다": 3893,
            "▁연결": 3894,
            "세계": 3895,
            "▁없다고": 3896,
            "▁T": 3897,
            "▁혜택": 3898,
            "▁창업": 3899,
            "▁단계": 3900,
            "경영": 3901,
            "▁뿐": 3902,
            "▁캐": 3903,
            "▁헤": 3904,
            "인데": 3905,
            "▁통합": 3906,
            "▁조직": 3907,
            "6년": 3908,
            "▁유통": 3909,
            "경찰": 3910,
            "▁페이": 3911,
            "▁엄": 3912,
            "▁어렵": 3913,
            "▁자신의": 3914,
            "테크": 3915,
            "▁회의": 3916,
            "프트": 3917,
            "▁전달": 3918,
            "지능": 3919,
            "르는": 3920,
            "▁차지": 3921,
            "▁뛰": 3922,
            "되면서": 3923,
            "▁거쳐": 3924,
            "▁그래": 3925,
            "▁방안": 3926,
            "▁요청": 3927,
            "▁통신": 3928,
            "▁석": 3929,
            "▁징": 3930,
            "▁소개": 3931,
            "시스템": 3932,
            "▁인증": 3933,
            "▁제출": 3934,
            "복지": 3935,
            "▁영향을": 3936,
            "▁비용": 3937,
            "▁겪": 3938,
            "훈련": 3939,
            "▁녹": 3940,
            "스타": 3941,
            "▁엔": 3942,
            "▁됐": 3943,
            "▁유럽": 3944,
            "차를": 3945,
            "▁기후": 3946,
            "▁비중": 3947,
            "자들의": 3948,
            "▁재판": 3949,
            "회담": 3950,
            "▁꾸": 3951,
            "▁돼": 3952,
            "라우": 3953,
            "▁광고": 3954,
            "▁씨": 3955,
            "▁자유": 3956,
            "가지": 3957,
            "▁인해": 3958,
            "▁KT": 3959,
            "서울": 3960,
            "▁발언": 3961,
            "했다며": 3962,
            "▁아시아": 3963,
            "▁바이오": 3964,
            "▁영상을": 3965,
            "가구": 3966,
            "움이": 3967,
            "▁놓": 3968,
            "▁완료": 3969,
            "상이": 3970,
            "▁20일": 3971,
            "▁최소": 3972,
            "▁코스": 3973,
            "관광": 3974,
            "디오": 3975,
            "▁바탕": 3976,
            "12": 3977,
            "하거나": 3978,
            "▁전날": 3979,
            "▁알려졌다": 3980,
            "▁그리고": 3981,
            "화된": 3982,
            "▁너": 3983,
            "▁것도": 3984,
            "▁26일": 3985,
            "그러": 3986,
            "▁지적했다": 3987,
            "회사": 3988,
            "▁롯데": 3989,
            "▁받을": 3990,
            "냈다": 3991,
            "▁비대": 3992,
            "▁전용": 3993,
            "식품": 3994,
            "되면": 3995,
            "▁와": 3996,
            "▁조정": 3997,
            "▁내부": 3998,
            "▁올라": 3999,
            "4년": 4000,
            "▁대형": 4001,
            "▁그러나": 4002,
            "▁희망": 4003,
            "▁진단": 4004,
            "중한": 4005,
            "▁침": 4006,
            "▁소통": 4007,
            "평가": 4008,
            "▁R": 4009,
            "▁했": 4010,
            "▁이같": 4011,
            "▁구체": 4012,
            "▁영업이익": 4013,
            "위는": 4014,
            "로부터": 4015,
            "▁꼽": 4016,
            "석열": 4017,
            "▁한편": 4018,
            "문을": 4019,
            "▁O": 4020,
            "▁규모의": 4021,
            "▁임대": 4022,
            "접종": 4023,
            "▁바로": 4024,
            "▁기여": 4025,
            "량이": 4026,
            "▁않을": 4027,
            "▁식품": 4028,
            "▁회사": 4029,
            "▁자연": 4030,
            "▁누구": 4031,
            "▁끌": 4032,
            "스가": 4033,
            "▁방안을": 4034,
            "▁달러": 4035,
            "▁유튜": 4036,
            "▁변호": 4037,
            "건설": 4038,
            "▁위반": 4039,
            "가격": 4040,
            "▁70": 4041,
            "▁방향": 4042,
            "▁대전": 4043,
            "▁가능하다": 4044,
            "▁바탕으로": 4045,
            "▁견": 4046,
            "▁현실": 4047,
            "00만": 4048,
            "회에서": 4049,
            "▁임상": 4050,
            "플러스": 4051,
            "▁활성화": 4052,
            "▁위치": 4053,
            "중립": 4054,
            "▁예산": 4055,
            "▁받았다": 4056,
            "워크": 4057,
            "리에": 4058,
            "▁않았다": 4059,
            "▁스타트": 4060,
            "▁일정": 4061,
            "▁삶": 4062,
            "▁수행": 4063,
            "▁대통령이": 4064,
            "보험": 4065,
            "▁난": 4066,
            "▁차별": 4067,
            "▁18일": 4068,
            "▁문제가": 4069,
            "▁은행": 4070,
            "▁1차": 4071,
            "▁인공지능": 4072,
            "▁대표가": 4073,
            "▁전망이다": 4074,
            "▁조선": 4075,
            "▁21일": 4076,
            "▁독자": 4077,
            "▁얘": 4078,
            "▁진출": 4079,
            "▁조치": 4080,
            "머스": 4081,
            "특히": 4082,
            "▁전시": 4083,
            "▁돌아": 4084,
            "▁2021년": 4085,
            "▁지원을": 4086,
            "▁비롯해": 4087,
            "관계": 4088,
            "▁강원": 4089,
            "▁좀": 4090,
            "공사": 4091,
            "▁분양": 4092,
            "드를": 4093,
            "▁측은": 4094,
            "▁등록": 4095,
            "▁제외": 4096,
            "▁2020년": 4097,
            "교통": 4098,
            "액은": 4099,
            "성에": 4100,
            "▁법무": 4101,
            "▁대해서는": 4102,
            "▁목소": 4103,
            "억원으로": 4104,
            "리티": 4105,
            "▁중요한": 4106,
            "▁1월": 4107,
            "대학": 4108,
            "보고": 4109,
            "▁제도": 4110,
            "▁나서": 4111,
            "▁소득": 4112,
            "롭게": 4113,
            "▁이렇게": 4114,
            "율이": 4115,
            "▁사태": 4116,
            "▁협의": 4117,
            "국의": 4118,
            "▁중단": 4119,
            "▁대책": 4120,
            "사에서": 4121,
            "자에게": 4122,
            "하겠다는": 4123,
            "▁비대면": 4124,
            "부로": 4125,
            "▁매우": 4126,
            "▁발굴": 4127,
            "비를": 4128,
            "▁아니다": 4129,
            "데이터": 4130,
            "섰다": 4131,
            "▁인한": 4132,
            "▁중소기업": 4133,
            "▁윤석열": 4134,
            "▁동시에": 4135,
            "▁이벤": 4136,
            "▁주거": 4137,
            "▁과거": 4138,
            "52": 4139,
            "서도": 4140,
            "▁탄소중립": 4141,
            "▁먼저": 4142,
            "▁형태": 4143,
            "▁거리두": 4144,
            "어나": 4145,
            "했으며": 4146,
            "ew": 4147,
            "BS": 4148,
            "▁프로젝트": 4149,
            "이를": 4150,
            "▁할인": 4151,
            "▁활용해": 4152,
            "▁각종": 4153,
            "▁방침이다": 4154,
            "▁우리나라": 4155,
            "율을": 4156,
            "바이러스": 4157,
            "▁즉": 4158,
            "▁올랐": 4159,
            "▁제안": 4160,
            "이가": 4161,
            "회가": 4162,
            "▁애플": 4163,
            "▁가까": 4164,
            "▁충분": 4165,
            "회는": 4166,
            "▁관한": 4167,
            "▁기념": 4168,
            "▁사망": 4169,
            "▁교통": 4170,
            "울러": 4171,
            "학과": 4172,
            "▁채널": 4173,
            "▁불법": 4174,
            "케이": 4175,
            "▁솔루션": 4176,
            "▁팔": 4177,
            "▁나라": 4178,
            "겠다": 4179,
            "관은": 4180,
            "▁보다": 4181,
            "▁홈페이": 4182,
            "없이": 4183,
            "▁확정": 4184,
            "▁경선": 4185,
            "▁혼": 4186,
            "이기": 4187,
            "▁나선": 4188,
            "▁자율": 4189,
            "▁예약": 4190,
            "했다이": 4191,
            "▁있는데": 4192,
            "▁소상공": 4193,
            "두고": 4194,
            "▁인프라": 4195,
            "▁백신을": 4196,
            "라우드": 4197,
            "▁어린": 4198,
            "티브": 4199,
            "자들은": 4200,
            "▁여름": 4201,
            "▁장관은": 4202,
            "그는": 4203,
            "▁최저": 4204,
            "▁전해": 4205,
            "▁작년": 4206,
            "▁하지": 4207,
            "▁연계": 4208,
            "▁합의": 4209,
            "▁달성": 4210,
            "▁의견을": 4211,
            "▁전자": 4212,
            "▁대부분": 4213,
            "스로": 4214,
            "▁꿈": 4215,
            "▁암호": 4216,
            "▁이상의": 4217,
            "▁체험": 4218,
            "ews": 4219,
            "▁보험": 4220,
            "▁문제를": 4221,
            "▁능": 4222,
            "▁1분기": 4223,
            "▁드러": 4224,
            "▁이재명": 4225,
            "벤처": 4226,
            "자에": 4227,
            "웨어": 4228,
            "▁스타트업": 4229,
            "▁대신": 4230,
            "▁그동안": 4231,
            "▁오른": 4232,
            "하기도": 4233,
            "▁경남": 4234,
            "▁유치": 4235,
            "▁국토": 4236,
            "▁선언": 4237,
            "▁결국": 4238,
            "▁상황에서": 4239,
            "▁이하": 4240,
            "▁해야": 4241,
            "▁않아": 4242,
            "협력": 4243,
            "▁혐의로": 4244,
            "▁그룹": 4245,
            "율은": 4246,
            "▁선거": 4247,
            "체인": 4248,
            "준석": 4249,
            "▁배달": 4250,
            "▁담당": 4251,
            "생활": 4252,
            "▁금지": 4253,
            "▁파트": 4254,
            "▁어려운": 4255,
            "▁팬": 4256,
            "▁파악": 4257,
            "▁2017년": 4258,
            "재단": 4259,
            "▁공시": 4260,
            "▁28일": 4261,
            "스의": 4262,
            "▁상반기": 4263,
            "▁연속": 4264,
            "▁보도": 4265,
            "▁점검": 4266,
            "▁주변": 4267,
            "▁가상자산": 4268,
            "▁점을": 4269,
            "▁세종": 4270,
            "▁이름": 4271,
            "부와": 4272,
            "▁은": 4273,
            "▁24일": 4274,
            "위에": 4275,
            "▁홍보": 4276,
            "000만원": 4277,
            "률이": 4278,
            "▁2월": 4279,
            "▁10월": 4280,
            "▁비해": 4281,
            "▁확장": 4282,
            "▁처리": 4283,
            "케팅": 4284,
            "청은": 4285,
            "▁나가": 4286,
            "▁반면": 4287,
            "▁국무": 4288,
            "▁기업의": 4289,
            "▁보건": 4290,
            "▁생태": 4291,
            "▁디자인": 4292,
            "▁펼": 4293,
            "되며": 4294,
            "대책": 4295,
            "▁5일": 4296,
            "대가": 4297,
            "▁내놓": 4298,
            "▁유튜브": 4299,
            "▁갖고": 4300,
            "▁의무": 4301,
            "▁입장을": 4302,
            "▁메타": 4303,
            "더라도": 4304,
            "병원": 4305,
            "장으로": 4306,
            "장에서": 4307,
            "한국": 4308,
            "▁울산": 4309,
            "▁파트너": 4310,
            "▁19일": 4311,
            "마다": 4312,
            "▁신종": 4313,
            "▁검사": 4314,
            "▁투자를": 4315,
            "▁국립": 4316,
            "▁일자리": 4317,
            "▁사무": 4318,
            "▁12월": 4319,
            "▁소중한": 4320,
            "▁F": 4321,
            "▁맛": 4322,
            "쳤다": 4323,
            "▁2분기": 4324,
            "자체": 4325,
            "▁발견": 4326,
            "리지": 4327,
            "▁바이든": 4328,
            "▁최초로": 4329,
            "▁특정": 4330,
            "▁인터넷": 4331,
            "▁행사": 4332,
            "▁지분": 4333,
            "▁지도": 4334,
            "▁줄어": 4335,
            "▁대규모": 4336,
            "▁31일": 4337,
            "▁것이라는": 4338,
            "▁화제": 4339,
            "▁반대": 4340,
            "▁대체": 4341,
            "▁고민": 4342,
            "▁코로나19로": 4343,
            "어요": 4344,
            "▁채용": 4345,
            "▁가구": 4346,
            "느냐": 4347,
            "▁물류": 4348,
            "▁숨": 4349,
            "▁21": 4350,
            "▁흐": 4351,
            "기간": 4352,
            "▁빠르게": 4353,
            "중앙": 4354,
            "▁소속": 4355,
            "점이": 4356,
            "▁몸": 4357,
            "니스": 4358,
            "▁빅": 4359,
            "▁바란": 4360,
            "지도": 4361,
            "▁왜": 4362,
            "▁바이러스": 4363,
            "▁혈": 4364,
            "▁민주": 4365,
            "▁예비": 4366,
            "지면서": 4367,
            "▁재정": 4368,
            "▁통과": 4369,
            "건을": 4370,
            "▁만든": 4371,
            "와의": 4372,
            "▁너무": 4373,
            "하겠습니다": 4374,
            "▁재난": 4375,
            "▁기반으로": 4376,
            "▁창출": 4377,
            "▁둘": 4378,
            "▁탑": 4379,
            "나는": 4380,
            "▁앞으로도": 4381,
            "이드": 4382,
            "00만원": 4383,
            "▁받는": 4384,
            "▁정보를": 4385,
            "▁달리": 4386,
            "▁전남": 4387,
            "▁번째": 4388,
            "▁오픈": 4389,
            "화에": 4390,
            "부에": 4391,
            "▁편의": 4392,
            "▁주장했다": 4393,
            "전문": 4394,
            "▁주도": 4395,
            "▁검증": 4396,
            "▁마이": 4397,
            "되어": 4398,
            "▁작품": 4399,
            "대한": 4400,
            "▁인식": 4401,
            "▁방식으로": 4402,
            "대에": 4403,
            "▁귀": 4404,
            "률을": 4405,
            "▁영국": 4406,
            "▁토론": 4407,
            "25": 4408,
            "▁인근": 4409,
            "약품": 4410,
            "▁장애": 4411,
            "▁외교": 4412,
            "▁프리": 4413,
            "▁그린": 4414,
            "들에": 4415,
            "▁제공하는": 4416,
            "▁맞춤": 4417,
            "▁사람이": 4418,
            "▁로봇": 4419,
            "진흥": 4420,
            "일보": 4421,
            "▁결과를": 4422,
            "▁이준석": 4423,
            "15": 4424,
            "▁설계": 4425,
            "▁내용을": 4426,
            "▁반응": 4427,
            "▁숙": 4428,
            "▁그렇": 4429,
            "▁퇴": 4430,
            "▁배출": 4431,
            "제품": 4432,
            "스터": 4433,
            "포츠": 4434,
            "원과": 4435,
            "▁코로나바이러스": 4436,
            "▁감염증": 4437,
            "▁시험": 4438,
            "▁택": 4439,
            "▁TV": 4440,
            "연합": 4441,
            "▁모집": 4442,
            "▁H": 4443,
            "▁투입": 4444,
            "▁잔": 4445,
            "성장": 4446,
            "▁활용한": 4447,
            "한다며": 4448,
            "▁1조": 4449,
            "▁제대로": 4450,
            "▁26": 4451,
            "▁가지": 4452,
            "▁자금": 4453,
            "▁삼성전자": 4454,
            "행을": 4455,
            "▁움": 4456,
            "▁간담": 4457,
            "▁나왔다": 4458,
            "▁취업": 4459,
            "▁암호화폐": 4460,
            "러한": 4461,
            "앞서": 4462,
            "국민": 4463,
            "▁여전히": 4464,
            "▁20210": 4465,
            "▁참가": 4466,
            "▁30일": 4467,
            "▁제공한다": 4468,
            "▁확진자": 4469,
            "▁스마트폰": 4470,
            "▁열고": 4471,
            "▁항공": 4472,
            "▁액": 4473,
            "▁1일": 4474,
            "스북": 4475,
            "▁80": 4476,
            "▁갤": 4477,
            "▁인도": 4478,
            "▁어느": 4479,
            "▁우주": 4480,
            "▁출범": 4481,
            "▁표현": 4482,
            "하자": 4483,
            "인으로": 4484,
            "대학교": 4485,
            "▁27": 4486,
            "항공": 4487,
            "▁공연": 4488,
            "첨단": 4489,
            "명은": 4490,
            "▁신뢰": 4491,
            "▁근로": 4492,
            "▁11월": 4493,
            "▁앞두고": 4494,
            "▁발표했다": 4495,
            "▁그런데": 4496,
            "보호": 4497,
            "▁접근": 4498,
            "▁기준으로": 4499,
            "40": 4500,
            "▁강남": 4501,
            "▁동기": 4502,
            "위가": 4503,
            "▁작업": 4504,
            "▁뛰어": 4505,
            "노동": 4506,
            "▁전반": 4507,
            "▁겸": 4508,
            "트워크": 4509,
            "▁인터뷰": 4510,
            "▁여러분의": 4511,
            "1년": 4512,
            "거리": 4513,
            "률은": 4514,
            "▁2년": 4515,
            "프라인": 4516,
            "▁지속적으로": 4517,
            "▁변경": 4518,
            "인과": 4519,
            "▁클라우드": 4520,
            "▁검찰총": 4521,
            "개의": 4522,
            "▁제2": 4523,
            "▁잇": 4524,
            "다가": 4525,
            "▁도움이": 4526,
            "▁받았": 4527,
            "▁말씀": 4528,
            "▁IP": 4529,
            "수의": 4530,
            "▁거래소": 4531,
            "케어": 4532,
            "▁집계": 4533,
            "뱅크": 4534,
            "▁인구": 4535,
            "▁12일": 4536,
            "▁상대": 4537,
            "▁있기": 4538,
            "▁부회": 4539,
            "▁무엇": 4540,
            "▁정확": 4541,
            "▁웹": 4542,
            "스코": 4543,
            "사고": 4544,
            "▁움직": 4545,
            "▁규정": 4546,
            "▁봉": 4547,
            "▁비롯한": 4548,
            "면서도": 4549,
            "▁근무": 4550,
            "▁학습": 4551,
            "▁한다며": 4552,
            "지지": 4553,
            "▁선도": 4554,
            "▁연구원은": 4555,
            "▁젊": 4556,
            "▁1000": 4557,
            "무리": 4558,
            "▁35": 4559,
            "▁효율": 4560,
            "▁제품을": 4561,
            "▁상담": 4562,
            "지에서": 4563,
            "▁지자체": 4564,
            "임을": 4565,
            "지의": 4566,
            "▁납": 4567,
            "▁제보를": 4568,
            "▁페이스북": 4569,
            "▁정책을": 4570,
            "▁U": 4571,
            "▁증권": 4572,
            "▁투기": 4573,
            "▁터": 4574,
            "▁IT": 4575,
            "▁음식": 4576,
            "▁보이": 4577,
            "▁해양": 4578,
            "연구소": 4579,
            "▁긍": 4580,
            "▁같이": 4581,
            "▁이사": 4582,
            "▁티": 4583,
            "▁신설": 4584,
            "▁페": 4585,
            "국은": 4586,
            "▁증가했다": 4587,
            "▁하면": 4588,
            "하던": 4589,
            "협의": 4590,
            "▁지사는": 4591,
            "▁활동을": 4592,
            "▁극복": 4593,
            "▁정권": 4594,
            "▁출신": 4595,
            "▁삼성전": 4596,
            "▁퍼": 4597,
            "▁수는": 4598,
            "▁누적": 4599,
            "▁질문": 4600,
            "▁청소년": 4601,
            "관을": 4602,
            "▁남북": 4603,
            "▁포함한": 4604,
            "▁없어": 4605,
            "▁성과를": 4606,
            "▁청약": 4607,
            "▁맞춰": 4608,
            "▁영화": 4609,
            "▁마케팅": 4610,
            "▁미디어": 4611,
            "▁시장에": 4612,
            "▁가진": 4613,
            "▁지나": 4614,
            "▁나갈": 4615,
            "▁발표한": 4616,
            "주시면": 4617,
            "▁거리두기": 4618,
            "▁시장은": 4619,
            "▁상황을": 4620,
            "르고": 4621,
            "▁시장에서": 4622,
            "▁긍정": 4623,
            "등학교": 4624,
            "▁맥": 4625,
            "▁출마": 4626,
            "▁미국의": 4627,
            "▁법률": 4628,
            "▁수상": 4629,
            "▁부정": 4630,
            "▁조금": 4631,
            "치고": 4632,
            "▁해소": 4633,
            "▁실현": 4634,
            "지와": 4635,
            "▁제가": 4636,
            "▁이른": 4637,
            "▁판단되는": 4638,
            "▁꾸준": 4639,
            "▁공격": 4640,
            "▁알고": 4641,
            "▁정상회담": 4642,
            "▁분위": 4643,
            "균형": 4644,
            "▁지하": 4645,
            "음을": 4646,
            "▁실시간": 4647,
            "▁이끌": 4648,
            "▁강력": 4649,
            "▁전통": 4650,
            "빌리티": 4651,
            "▁목표로": 4652,
            "▁수립": 4653,
            "▁34": 4654,
            "국이": 4655,
            "▁13일": 4656,
            "하이": 4657,
            "▁영역": 4658,
            "다면": 4659,
            "▁연간": 4660,
            "▁11일": 4661,
            "▁관심이": 4662,
            "▁최고위원": 4663,
            "60": 4664,
            "▁현대차": 4665,
            "▁의원이": 4666,
            "▁전면": 4667,
            "▁신속": 4668,
            "▁블록": 4669,
            "제가": 4670,
            "학생": 4671,
            "하는데": 4672,
            "기구": 4673,
            "▁사진영상": 4674,
            "▁약속": 4675,
            "▁일상": 4676,
            "▁적극적으로": 4677,
            "량은": 4678,
            "▁가능성": 4679,
            "13": 4680,
            "▁아동": 4681,
            "낙연": 4682,
            "▁수요가": 4683,
            "▁가치나": 4684,
            "▁이같이": 4685,
            "실을": 4686,
            "▁하이": 4687,
            "대의": 4688,
            "▁뉴시스가": 4689,
            "라스": 4690,
            "▁보내주시면": 4691,
            "총리": 4692,
            "▁건물": 4693,
            "▁화제성이": 4694,
            "감이": 4695,
            "▁갈등": 4696,
            "▁반영하겠습니다": 4697,
            "▁사진영상부로": 4698,
            "▁빨": 4699,
            "됐다고": 4700,
            "▁5G": 4701,
            "▁협력을": 4702,
            "▁1인": 4703,
            "▁워": 4704,
            "▁내려": 4705,
            "▁얼마": 4706,
            "▁쉽게": 4707,
            "촬영": 4708,
            "▁늘었다": 4709,
            "활동": 4710,
            "▁셈": 4711,
            "▁수밖에": 4712,
            "▁신용": 4713,
            "▁이러한": 4714,
            "으로써": 4715,
            "관이": 4716,
            "24": 4717,
            "인지": 4718,
            "▁재산": 4719,
            "일을": 4720,
            "▁기초": 4721,
            "▁접종을": 4722,
            "▁사실상": 4723,
            "▁경북": 4724,
            "▁1위": 4725,
            "▁3년": 4726,
            "화로": 4727,
            "봤다": 4728,
            "▁등은": 4729,
            "생산": 4730,
            "▁공무": 4731,
            "었다고": 4732,
            "▁어린이": 4733,
            "▁팀": 4734,
            "80": 4735,
            "▁25일": 4736,
            "▁기업이": 4737,
            "운동": 4738,
            "단을": 4739,
            "▁메타버스": 4740,
            "하다며": 4741,
            "의도": 4742,
            "대출": 4743,
            "▁대변": 4744,
            "법을": 4745,
            "텔레": 4746,
            "로는": 4747,
            "게임": 4748,
            "▁33": 4749,
            "전략": 4750,
            "안이": 4751,
            "▁펀드": 4752,
            "▁몇": 4753,
            "시험": 4754,
            "▁증가한": 4755,
            "건축": 4756,
            "지구": 4757,
            "▁구글": 4758,
            "▁협업": 4759,
            "▁필요가": 4760,
            "▁사랑": 4761,
            "된다고": 4762,
            "▁회장은": 4763,
            "NS": 4764,
            "▁입주": 4765,
            "가고": 4766,
            "▁억": 4767,
            "▁못한": 4768,
            "▁통화": 4769,
            "대는": 4770,
            "히려": 4771,
            "▁원내": 4772,
            "▁4차": 4773,
            "▁관심을": 4774,
            "▁발행": 4775,
            "▁보유한": 4776,
            "수도": 4777,
            "부의": 4778,
            "▁넓": 4779,
            "연구원": 4780,
            "▁V": 4781,
            "▁불과": 4782,
            "▁맞춤형": 4783,
            "▁비즈": 4784,
            "만의": 4785,
            "▁단체": 4786,
            "▁과학기술": 4787,
            "▁품질": 4788,
            "트는": 4789,
            "▁비트코인": 4790,
            "스토": 4791,
            "대상": 4792,
            "수록": 4793,
            "▁인력": 4794,
            "구조": 4795,
            "▁가정": 4796,
            "럴드": 4797,
            "▁매각": 4798,
            "사이": 4799,
            "▁정신": 4800,
            "▁충전": 4801,
            "▁예상된다": 4802,
            "▁수입": 4803,
            "▁깊": 4804,
            "자동": 4805,
            "럭시": 4806,
            "▁매년": 4807,
            "▁젊은": 4808,
            "▁합니다": 4809,
            "가스": 4810,
            "자원": 4811,
            "▁가격이": 4812,
            "▁그래서": 4813,
            "운드": 4814,
            "▁종목": 4815,
            "▁인재": 4816,
            "단지": 4817,
            "▁상품을": 4818,
            "분을": 4819,
            "▁한국경제": 4820,
            "금은": 4821,
            "▁헌": 4822,
            "프로": 4823,
            "▁199": 4824,
            "▁변이": 4825,
            "▁혜택을": 4826,
            "▁선보인": 4827,
            "▁계획을": 4828,
            "▁촉구": 4829,
            "제는": 4830,
            "금이": 4831,
            "구역": 4832,
            "하우": 4833,
            "▁비슷": 4834,
            "럴드경제": 4835,
            "▁보이는": 4836,
            "▁붙": 4837,
            "방송": 4838,
            "▁육성": 4839,
            "▁국방": 4840,
            "▁주문": 4841,
            "▁지켜": 4842,
            "▁시장의": 4843,
            "됩니다": 4844,
            "▁힘을": 4845,
            "▁소상공인": 4846,
            "▁것에": 4847,
            "▁집값": 4848,
            "▁존재": 4849,
            "▁우리가": 4850,
            "▁2일": 4851,
            "지막": 4852,
            "명에": 4853,
            "▁되고": 4854,
            "화가": 4855,
            "▁복지": 4856,
            "▁이와": 4857,
            "▁진행한다": 4858,
            "▁오히려": 4859,
            "▁집단": 4860,
            "▁안내": 4861,
            "▁원칙": 4862,
            "▁냉": 4863,
            "▁기능을": 4864,
            "▁효과를": 4865,
            "▁없다는": 4866,
            "▁배우": 4867,
            "▁결제": 4868,
            "이지만": 4869,
            "▁분야에서": 4870,
            "▁지구": 4871,
            "▁이유로": 4872,
            "▁체계": 4873,
            "▁현지": 4874,
            "했는데": 4875,
            "화점": 4876,
            "화와": 4877,
            "씨가": 4878,
            "▁추정": 4879,
            "▁그러면서": 4880,
            "▁헤럴드경제": 4881,
            "▁전북": 4882,
            "사업을": 4883,
            "▁구현": 4884,
            "겠습니다": 4885,
            "▁특징": 4886,
            "▁보장": 4887,
            "▁캠페": 4888,
            "▁확인할": 4889,
            "▁예술": 4890,
            "항을": 4891,
            "▁주제로": 4892,
            "▁보안": 4893,
            "▁운용": 4894,
            "이날": 4895,
            "▁업무협": 4896,
            "▁국회의": 4897,
            "개를": 4898,
            "▁여론": 4899,
            "▁범죄": 4900,
            "▁낙": 4901,
            "▁추천": 4902,
            "er": 4903,
            "체를": 4904,
            "▁정도로": 4905,
            "▁벗": 4906,
            "▁완성": 4907,
            "융합": 4908,
            "▁빌": 4909,
            "▁세계를": 4910,
            "만큼": 4911,
            "시켜": 4912,
            "공간": 4913,
            "▁원을": 4914,
            "▁시도": 4915,
            "있는": 4916,
            "보다는": 4917,
            "었던": 4918,
            "운용": 4919,
            "▁뇌": 4920,
            "▁단순": 4921,
            "▁한국의": 4922,
            "▁낮은": 4923,
            "▁거주": 4924,
            "기의": 4925,
            "카드": 4926,
            "▁위해서는": 4927,
            "▁90": 4928,
            "▁측면": 4929,
            "가의": 4930,
            "▁근거": 4931,
            "스와": 4932,
            "▁가지고": 4933,
            "▁시간이": 4934,
            "리오": 4935,
            "부장": 4936,
            "▁누구나": 4937,
            "news": 4938,
            "▁업종": 4939,
            "▁쇼핑": 4940,
            "뮤니": 4941,
            "▁고려해": 4942,
            "▁빈": 4943,
            "안에": 4944,
            "▁이루": 4945,
            "▁반발": 4946,
            "으로는": 4947,
            "조정": 4948,
            "받은": 4949,
            "군은": 4950,
            "▁시점": 4951,
            "고를": 4952,
            "▁시스템을": 4953,
            "▁기소": 4954,
            "뿐만": 4955,
            "▁이들": 4956,
            "시가": 4957,
            "▁늘어난": 4958,
            "▁이익": 4959,
            "▁익": 4960,
            "부동산": 4961,
            "상품": 4962,
            "▁주관": 4963,
            "▁주는": 4964,
            "▁돕": 4965,
            "▁죽": 4966,
            "▁우려가": 4967,
            "주가": 4968,
            "▁운영하는": 4969,
            "11코리아": 4970,
            "▁가치를": 4971,
            "▁예측": 4972,
            "▁콘텐츠를": 4973,
            "더나": 4974,
            "했을": 4975,
            "단은": 4976,
            "▁저는": 4977,
            "▁마스크": 4978,
            "▁실천": 4979,
            "▁살아": 4980,
            "▁캠프": 4981,
            "보는": 4982,
            "수사": 4983,
            "▁쿠팡": 4984,
            "투자증권": 4985,
            "▁기회를": 4986,
            "14": 4987,
            "▁여의도": 4988,
            "회에": 4989,
            "BC": 4990,
            "▁휴대": 4991,
            "▁9일": 4992,
            "▁이야기": 4993,
            "상에": 4994,
            "▁갤럭시": 4995,
            "▁14일": 4996,
            "트리": 4997,
            "▁차례": 4998,
            "▁호텔": 4999,
            "▁넘는": 5000,
            "▁프로그램을": 5001,
            "▁건축": 5002,
            "료로": 5003,
            "▁모습을": 5004,
            "▁10일": 5005,
            "▁대통령의": 5006,
            "▁국내외": 5007,
            "▁망": 5008,
            "▁제약": 5009,
            "기준": 5010,
            "▁데이터를": 5011,
            "▁7일": 5012,
            "▁추가로": 5013,
            "▁어려움을": 5014,
            "17": 5015,
            "▁유명": 5016,
            "▁지원하는": 5017,
            "물이": 5018,
            "▁만드는": 5019,
            "▁금리": 5020,
            "림픽": 5021,
            "▁개편": 5022,
            "news11코리아": 5023,
            "▁나섰다": 5024,
            "▁필요하다고": 5025,
            "▁등에서": 5026,
            "▁일이": 5027,
            "▁개발한": 5028,
            "▁콜": 5029,
            "▁급증": 5030,
            "▁올랐다": 5031,
            "▁대중": 5032,
            "▁획": 5033,
            "▁도전": 5034,
            "▁해석": 5035,
            "▁싸": 5036,
            "▁6일": 5037,
            "NA": 5038,
            "▁이낙연": 5039,
            "의료": 5040,
            "▁외부": 5041,
            "▁스스로": 5042,
            "▁3일": 5043,
            "활용": 5044,
            "▁45": 5045,
            "▁연장": 5046,
            "▁얘기": 5047,
            "▁정의": 5048,
            "▁필수": 5049,
            "▁연구개발": 5050,
            "▁36": 5051,
            "▁역대": 5052,
            "▁4일": 5053,
            "▁확진자가": 5054,
            "먼트": 5055,
            "▁음악": 5056,
            "로를": 5057,
            "영업": 5058,
            "▁역량을": 5059,
            "▁행복": 5060,
            "▁갑": 5061,
            "▁시장을": 5062,
            "▁32": 5063,
            "000만": 5064,
            "▁전력": 5065,
            "계가": 5066,
            "▁취약": 5067,
            "▁맺": 5068,
            "▁컴": 5069,
            "▁덕": 5070,
            "▁상위": 5071,
            "▁양성": 5072,
            "▁발생한": 5073,
            "▁3만": 5074,
            "법인": 5075,
            "▁바람": 5076,
            "▁네트워크": 5077,
            "▁살펴": 5078,
            "▁둔": 5079,
            "▁처음으로": 5080,
            "자동차": 5081,
            "▁바란다고": 5082,
            "▁인간": 5083,
            "000억원": 5084,
            "▁충남": 5085,
            "▁상황이": 5086,
            "▁듣": 5087,
            "▁10년": 5088,
            "▁친구": 5089,
            "▁접수": 5090,
            "미엄": 5091,
            "▁운동": 5092,
            "▁취득": 5093,
            "▁겨": 5094,
            "▁보였다": 5095,
            "▁흔": 5096,
            "심을": 5097,
            "▁회견": 5098,
            "▁되면": 5099,
            "화학": 5100,
            "▁논란이": 5101,
            "주를": 5102,
            "▁절반": 5103,
            "공항": 5104,
            "▁상호": 5105,
            "▁나아": 5106,
            "유플러스": 5107,
            "▁수수": 5108,
            "조원": 5109,
            "직원": 5110,
            "▁부과": 5111,
            "▁예방접종": 5112,
            "▁셀": 5113,
            "▁이벤트": 5114,
            "정은": 5115,
            "▁마지막": 5116,
            "▁회원": 5117,
            "머니": 5118,
            "▁그대로": 5119,
            "▁환자": 5120,
            "▁절차": 5121,
            "▁최선을": 5122,
            "▁응답": 5123,
            "▁태양": 5124,
            "갔다": 5125,
            "▁목적": 5126,
            "▁메시": 5127,
            "삼성": 5128,
            "▁우리는": 5129,
            "▁시작으로": 5130,
            "적이고": 5131,
            "헬스": 5132,
            "▁여당": 5133,
            "▁수준으로": 5134,
            "▁수가": 5135,
            "▁출연": 5136,
            "▁선고": 5137,
            "그러면서": 5138,
            "로서": 5139,
            "▁결합": 5140,
            "▁2016년": 5141,
            "▁것과": 5142,
            "▁자기": 5143,
            "예술": 5144,
            "▁마무리": 5145,
            "▁시청": 5146,
            "▁남성": 5147,
            "▁러": 5148,
            "▁지속가능": 5149,
            "▁넷": 5150,
            "▁상향": 5151,
            "▁밝힌": 5152,
            "텔레콤": 5153,
            "받고": 5154,
            "▁양도": 5155,
            "in": 5156,
            "▁강한": 5157,
            "▁불안": 5158,
            "▁초기": 5159,
            "▁마감": 5160,
            "▁흐름": 5161,
            "▁낸": 5162,
            "리스": 5163,
            "서관": 5164,
            "공급": 5165,
            "베이": 5166,
            "▁했다고": 5167,
            "▁부여": 5168,
            "▁유일": 5169,
            "▁16일": 5170,
            "스럽": 5171,
            "▁이슈": 5172,
            "주년": 5173,
            "▁상생": 5174,
            "▁역사": 5175,
            "▁한반": 5176,
            "▁블록체인": 5177,
            "▁첨단": 5178,
            "▁놀": 5179,
            "▁모더나": 5180,
            "▁계획이라고": 5181,
            "▁사업에": 5182,
            "정이": 5183,
            "▁꾸준히": 5184,
            "주행": 5185,
            "▁서울경제": 5186,
            "리즈": 5187,
            "▁심각": 5188,
            "▁케이": 5189,
            "▁이용해": 5190,
            "▁라이브": 5191,
            "▁효과가": 5192,
            "▁맞는": 5193,
            "회의에서": 5194,
            "보건": 5195,
            "▁시간을": 5196,
            "기와": 5197,
            "▁관측": 5198,
            "분야": 5199,
            "▁맞아": 5200,
            "사인": 5201,
            "▁실질": 5202,
            "위로": 5203,
            "▁계열": 5204,
            "또한": 5205,
            "웨이": 5206,
            "▁돌파": 5207,
            "▁2만": 5208,
            "▁그렇게": 5209,
            "▁커뮤니": 5210,
            "▁수준의": 5211,
            "▁경쟁력": 5212,
            "▁계약을": 5213,
            "▁성능": 5214,
            "▁끌어": 5215,
            "▁자료": 5216,
            "▁염": 5217,
            "자치": 5218,
            "▁배경": 5219,
            "냐는": 5220,
            "▁해도": 5221,
            "위원회는": 5222,
            "▁등장": 5223,
            "분이": 5224,
            "진을": 5225,
            "▁쌓": 5226,
            "▁탐": 5227,
            "스플레이": 5228,
            "▁시장이": 5229,
            "▁외국인": 5230,
            "▁최적": 5231,
            "▁담은": 5232,
            "▁독일": 5233,
            "상의": 5234,
            "▁소송": 5235,
            "▁이번에": 5236,
            "▁찬": 5237,
            "범죄": 5238,
            "▁철저": 5239,
            "다만": 5240,
            "었고": 5241,
            "으니": 5242,
            "린다": 5243,
            "액을": 5244,
            "▁조건": 5245,
            "▁고위": 5246,
            "▁쏟": 5247,
            "▁듯": 5248,
            "도에": 5249,
            "커머스": 5250,
            "▁과정을": 5251,
            "▁프리미엄": 5252,
            "▁셈이다": 5253,
            "▁SNS": 5254,
            "▁평가를": 5255,
            "격을": 5256,
            "지원금": 5257,
            "하고자": 5258,
            "▁1억": 5259,
            "▁가상화폐": 5260,
            "▁스토": 5261,
            "▁보이고": 5262,
            "▁가능성을": 5263,
            "▁여기에": 5264,
            "▁아마": 5265,
            "▁자본": 5266,
            "▁대해서도": 5267,
            "▁슈": 5268,
            "▁점에서": 5269,
            "▁매입": 5270,
            "안은": 5271,
            "▁이용자": 5272,
            "▁탑재": 5273,
            "어야": 5274,
            "식이": 5275,
            "▁포함해": 5276,
            "▁수집": 5277,
            "▁A씨는": 5278,
            "▁찍": 5279,
            "▁깨": 5280,
            "▁원전": 5281,
            "▁특허": 5282,
            "▁원하는": 5283,
            "모델": 5284,
            "9년": 5285,
            "▁대권": 5286,
            "리기": 5287,
            "▁당부": 5288,
            "▁집행": 5289,
            "▁에어": 5290,
            "▁미만": 5291,
            "▁카드": 5292,
            "▁밤": 5293,
            "▁반려": 5294,
            "▁델": 5295,
            "▁경험을": 5296,
            "▁센터": 5297,
            "▁소유": 5298,
            "▁시범": 5299,
            "▁이용할": 5300,
            "▁상황이다": 5301,
            "▁좌": 5302,
            "▁사실을": 5303,
            "▁정비": 5304,
            "▁장관이": 5305,
            "▁진입": 5306,
            "지방": 5307,
            "드시": 5308,
            "▁수술": 5309,
            "▁않다": 5310,
            "▁설명이다": 5311,
            "▁신한": 5312,
            "특별": 5313,
            "▁사람들이": 5314,
            "▁가져": 5315,
            "▁실제로": 5316,
            "▁형성": 5317,
            "화하고": 5318,
            "스러": 5319,
            "▁잘못": 5320,
            "▁PC": 5321,
            "이노": 5322,
            "▁수석": 5323,
            "설팅": 5324,
            "▁등도": 5325,
            "▁동의": 5326,
            "▁CJ": 5327,
            "오는": 5328,
            "▁협약": 5329,
            "▁아시아경제": 5330,
            "00여": 5331,
            "▁토지": 5332,
            "▁경쟁력을": 5333,
            "▁m": 5334,
            "운영": 5335,
            "▁8일": 5336,
            "▁독립": 5337,
            "▁믿": 5338,
            "▁의사": 5339,
            "▁대기업": 5340,
            "라스틱": 5341,
            "▁동일": 5342,
            "으로부터": 5343,
            "▁37": 5344,
            "▁종부": 5345,
            "▁위탁": 5346,
            "▁훈련": 5347,
            "▁2030": 5348,
            "현대": 5349,
            "▁손해": 5350,
            "▁많아": 5351,
            "▁즐길": 5352,
            "세포": 5353,
            "▁재개발": 5354,
            "▁녹색": 5355,
            "선거": 5356,
            "▁시각": 5357,
            "▁묻": 5358,
            "▁트렌": 5359,
            "▁최저임": 5360,
            "점에서": 5361,
            "▁빠른": 5362,
            "였던": 5363,
            "액이": 5364,
            "주로": 5365,
            "▁2025년": 5366,
            "지법": 5367,
            "권의": 5368,
            "▁사과": 5369,
            "▁지금까지": 5370,
            "▁인기": 5371,
            "▁23일": 5372,
            "▁진행하고": 5373,
            "▁서로": 5374,
            "▁지역의": 5375,
            "▁부모": 5376,
            "재생": 5377,
            "▁개발을": 5378,
            "▁위기": 5379,
            "▁이들은": 5380,
            "▁주가": 5381,
            "▁않는다": 5382,
            "내는": 5383,
            "▁플랫폼을": 5384,
            "▁5년": 5385,
            "감독": 5386,
            "▁흥": 5387,
            "▁충북": 5388,
            "▁피해를": 5389,
            "▁단지": 5390,
            "on": 5391,
            "▁라인": 5392,
            "▁위해서": 5393,
            "▁취임": 5394,
            "소에": 5395,
            "▁달라": 5396,
            "▁등과": 5397,
            "▁색": 5398,
            "▁작은": 5399,
            "▁주로": 5400,
            "▁늦": 5401,
            "▁원자": 5402,
            "23": 5403,
            "▁스포츠": 5404,
            "▁3개": 5405,
            "▁정당": 5406,
            "▁좋아": 5407,
            "▁매매": 5408,
            "▁제공할": 5409,
            "정상": 5410,
            "▁장비": 5411,
            "▁코스피": 5412,
            "▁투자자": 5413,
            "▁여부를": 5414,
            "받는": 5415,
            "▁비즈니스": 5416,
            "▁갖춘": 5417,
            "16": 5418,
            "▁명의": 5419,
            "론을": 5420,
            "▁소프트": 5421,
            "베이션": 5422,
            "금리": 5423,
            "▁뉴욕": 5424,
            "DC": 5425,
            "▁내고": 5426,
            "▁법무부": 5427,
            "스에": 5428,
            "▁총장은": 5429,
            "▁복합": 5430,
            "나고": 5431,
            "조합": 5432,
            "▁대폭": 5433,
            "▁사상": 5434,
            "▁흡": 5435,
            "어를": 5436,
            "기획": 5437,
            "▁수급": 5438,
            "▁작용": 5439,
            "▁아울러": 5440,
            "마켓": 5441,
            "▁선발": 5442,
            "▁반드시": 5443,
            "▁노력을": 5444,
            "▁기억": 5445,
            "▁총장": 5446,
            "▁급등": 5447,
            "지사": 5448,
            "▁자세": 5449,
            "▁새롭게": 5450,
            "▁루": 5451,
            "으로서": 5452,
            "▁만족": 5453,
            "▁섬": 5454,
            "겼다": 5455,
            "질을": 5456,
            "는지": 5457,
            "▁사용할": 5458,
            "최근": 5459,
            "▁배송": 5460,
            "▁이행": 5461,
            "▁비판했다": 5462,
            "도와": 5463,
            "명이다": 5464,
            "▁38": 5465,
            "▁구속": 5466,
            "▁직장": 5467,
            "▁사업은": 5468,
            "▁안에": 5469,
            "함을": 5470,
            "▁형사": 5471,
            "▁싱": 5472,
            "▁KB": 5473,
            "▁아무": 5474,
            "▁내가": 5475,
            "▁5개": 5476,
            "▁원내대표": 5477,
            "▁테슬": 5478,
            "▁심사": 5479,
            "해도": 5480,
            "▁향상": 5481,
            "▁계기로": 5482,
            "▁것이란": 5483,
            "▁충분히": 5484,
            "국제": 5485,
            "효과": 5486,
            "꾸는": 5487,
            "구는": 5488,
            "팀은": 5489,
            "▁자녀": 5490,
            "▁진행된다": 5491,
            "▁29일": 5492,
            "▁많다": 5493,
            "▁매수": 5494,
            "▁차세대": 5495,
            "▁폴": 5496,
            "이지": 5497,
            "▁GS": 5498,
            "▁언제": 5499,
            "▁허용": 5500,
            "치가": 5501,
            "▁이내": 5502,
            "▁어디": 5503,
            "▁질병": 5504,
            "▁지원한다": 5505,
            "▁끊": 5506,
            "▁지키": 5507,
            "증을": 5508,
            "▁회장": 5509,
            "▁거의": 5510,
            "▁6개월": 5511,
            "▁걸쳐": 5512,
            "역을": 5513,
            "파크": 5514,
            "▁화장": 5515,
            "산물": 5516,
            "▁47": 5517,
            "▁촬영": 5518,
            "▁시절": 5519,
            "▁2015년": 5520,
            "▁못하고": 5521,
            "▁혹": 5522,
            "▁감안": 5523,
            "체육": 5524,
            "▁시작했다": 5525,
            "씨의": 5526,
            "▁그것": 5527,
            "▁테이": 5528,
            "▁전에": 5529,
            "함으로써": 5530,
            "후보": 5531,
            "정보통신": 5532,
            "▁203": 5533,
            "받아": 5534,
            "TF": 5535,
            "▁속에서": 5536,
            "▁화이자": 5537,
            "▁옮": 5538,
            "실에서": 5539,
            "▁동물": 5540,
            "▁상용": 5541,
            "에만": 5542,
            "소가": 5543,
            "▁해서": 5544,
            "▁접촉": 5545,
            "▁공장": 5546,
            "시의": 5547,
            "▁2023년": 5548,
            "▁연기": 5549,
            "▁벌어": 5550,
            "▁작성": 5551,
            "▁곧": 5552,
            "▁불구": 5553,
            "▁통계": 5554,
            "리한": 5555,
            "부문": 5556,
            "▁노조": 5557,
            "▁놓고": 5558,
            "▁졸": 5559,
            "▁22일": 5560,
            "이란": 5561,
            "▁55": 5562,
            "▁푸": 5563,
            "▁개발에": 5564,
            "▁LH": 5565,
            "코로나": 5566,
            "▁밝히": 5567,
            "Z세대": 5568,
            "▁조치를": 5569,
            "▁정치적": 5570,
            "인가": 5571,
            "▁점유": 5572,
            "▁평화": 5573,
            "▁땅": 5574,
            "▁연령": 5575,
            "아이": 5576,
            "스트라": 5577,
            "력과": 5578,
            "▁인권": 5579,
            "▁웃": 5580,
            "▁등이다": 5581,
            "▁역량": 5582,
            "▁위치한": 5583,
            "적이다": 5584,
            "▁승인": 5585,
            "▁기후변": 5586,
            "▁넣": 5587,
            "▁불가": 5588,
            "▁불편": 5589,
            "28": 5590,
            "▁델타": 5591,
            "▁e": 5592,
            "었습니다": 5593,
            "케이션": 5594,
            "▁없다며": 5595,
            "▁거론": 5596,
            "▁도심": 5597,
            "▁기부": 5598,
            "교육청": 5599,
            "▁대화": 5600,
            "▁구독": 5601,
            "▁더해": 5602,
            "치료": 5603,
            "▁빅데이터": 5604,
            "정에": 5605,
            "▁밝혔습니다": 5606,
            "▁시작한": 5607,
            "▁구체적인": 5608,
            "▁감축": 5609,
            "▁있던": 5610,
            "▁세대": 5611,
            "▁종료": 5612,
            "▁현행": 5613,
            "구를": 5614,
            "회의를": 5615,
            "▁기준을": 5616,
            "으면서": 5617,
            "▁하는데": 5618,
            "▁관련한": 5619,
            "▁사람들의": 5620,
            "리와": 5621,
            "공원": 5622,
            "하려는": 5623,
            "서에": 5624,
            "학년": 5625,
            "▁업무협약을": 5626,
            "▁했습니다": 5627,
            "▁교육을": 5628,
            "▁책임을": 5629,
            "▁다음달": 5630,
            "▁여야": 5631,
            "▁시리즈": 5632,
            "공개": 5633,
            "▁마을": 5634,
            "▁프랑": 5635,
            "▁보니": 5636,
            "▁주력": 5637,
            "▁있다이": 5638,
            "제한": 5639,
            "▁조사를": 5640,
            "▁조합": 5641,
            "▁일을": 5642,
            "질환": 5643,
            "크로": 5644,
            "▁면역": 5645,
            "다이": 5646,
            "▁옥": 5647,
            "▁경제를": 5648,
            "▁2022년": 5649,
            "▁걱": 5650,
            "리의": 5651,
            "리핑": 5652,
            "시키는": 5653,
            "▁지표": 5654,
            "▁섭": 5655,
            "▁농업": 5656,
            "21": 5657,
            "니터": 5658,
            "▁동반": 5659,
            "▁화재": 5660,
            "▁조기": 5661,
            "점으로": 5662,
            "시민": 5663,
            "▁도로": 5664,
            "▁39": 5665,
            "▁4개": 5666,
            "▁분석했다": 5667,
            "▁야당": 5668,
            "공업": 5669,
            "▁개별": 5670,
            "▁우수한": 5671,
            "부산": 5672,
            "작용": 5673,
            "▁끼": 5674,
            "명과": 5675,
            "▁왔": 5676,
            "▁긴급": 5677,
            "▁봐": 5678,
            "▁자율주행": 5679,
            "산화": 5680,
            "▁예정이라고": 5681,
            "에서의": 5682,
            "▁전해졌다": 5683,
            "▁돈을": 5684,
            "▁제공하고": 5685,
            "수요": 5686,
            "션을": 5687,
            "▁이야기를": 5688,
            "▁열어": 5689,
            "라면": 5690,
            "▁기사": 5691,
            "▁부품": 5692,
            "▁LG유플러스": 5693,
            "▁15일": 5694,
            "▁아래": 5695,
            "장애": 5696,
            "▁풀이": 5697,
            "▁힘들": 5698,
            "소프트": 5699,
            "억달러": 5700,
            "▁가격은": 5701,
            "웠다": 5702,
            "▁둘러": 5703,
            "000원": 5704,
            "▁특수": 5705,
            "▁혐의를": 5706,
            "▁나는": 5707,
            "▁보급": 5708,
            "▁총리는": 5709,
            "영길": 5710,
            "▁변동": 5711,
            "▁65": 5712,
            "SK": 5713,
            "튜디오": 5714,
            "해왔다": 5715,
            "량의": 5716,
            "▁제1": 5717,
            "▁가계": 5718,
            "▁겁": 5719,
            "▁왔다": 5720,
            "▁재개": 5721,
            "▁경우가": 5722,
            "▁선호": 5723,
            "리카": 5724,
            "▁미술": 5725,
            "권에": 5726,
            "▁출발": 5727,
            "▁거듭": 5728,
            "▁기본소득": 5729,
            "▁레이": 5730,
            "▁추진하고": 5731,
            "▁투명": 5732,
            "여행": 5733,
            "수수": 5734,
            "달라고": 5735,
            "▁사라": 5736,
            "▁관련된": 5737,
            "▁징역": 5738,
            "레스": 5739,
            "▁문제는": 5740,
            "▁성장을": 5741,
            "▁쪽": 5742,
            "▁소방": 5743,
            "▁슬": 5744,
            "▁온실": 5745,
            "정한": 5746,
            "부터는": 5747,
            "제도": 5748,
            "우는": 5749,
            "▁비상": 5750,
            "▁대해선": 5751,
            "아요": 5752,
            "▁지식": 5753,
            "트로": 5754,
            "▁보상": 5755,
            "▁보완": 5756,
            "피스": 5757,
            "▁신세계": 5758,
            "인터": 5759,
            "▁않도록": 5760,
            "▁폐지": 5761,
            "▁종부세": 5762,
            "▁한화": 5763,
            "▁공공기관": 5764,
            "수처": 5765,
            "평균": 5766,
            "▁도움을": 5767,
            "▁빚": 5768,
            "화할": 5769,
            "▁기회": 5770,
            "▁신경": 5771,
            "▁적극적인": 5772,
            "▁멀": 5773,
            "▁저희": 5774,
            "조선": 5775,
            "▁공약": 5776,
            "▁현황": 5777,
            "려는": 5778,
            "▁기술이": 5779,
            "▁보수": 5780,
            "식에": 5781,
            "▁종사": 5782,
            "지수": 5783,
            "▁말을": 5784,
            "▁분리": 5785,
            "▁수용": 5786,
            "▁1천": 5787,
            "데믹": 5788,
            "면을": 5789,
            "▁속도를": 5790,
            "마을": 5791,
            "▁기획재": 5792,
            "▁여기": 5793,
            "현재": 5794,
            "▁매출은": 5795,
            "은행은": 5796,
            "전지": 5797,
            "▁기대한다고": 5798,
            "▁사람은": 5799,
            "▁코인": 5800,
            "▁그의": 5801,
            "▁흑": 5802,
            "▁수주": 5803,
            "사일": 5804,
            "받을": 5805,
            "▁자격": 5806,
            "29": 5807,
            "70": 5808,
            "▁분명": 5809,
            "▁이른바": 5810,
            "가족": 5811,
            "▁커뮤니티": 5812,
            "제약": 5813,
            "했으나": 5814,
            "주고": 5815,
            "관에서": 5816,
            "▁센": 5817,
            "▁NH": 5818,
            "▁쏟아": 5819,
            "▁없었다": 5820,
            "▁간편": 5821,
            "▁축소": 5822,
            "▁뒷": 5823,
            "▁때는": 5824,
            "▁정기": 5825,
            "▁고령": 5826,
            "▁있어서": 5827,
            "의약품": 5828,
            "무를": 5829,
            "▁전혀": 5830,
            "▁궁": 5831,
            "위원장": 5832,
            "제네": 5833,
            "▁왕": 5834,
            "▁국정": 5835,
            "▁처벌": 5836,
            "억원의": 5837,
            "▁방지": 5838,
            "▁있다면서": 5839,
            "소에서": 5840,
            "기기": 5841,
            "▁이어질": 5842,
            "▁2000": 5843,
            "향을": 5844,
            "▁매일": 5845,
            "구가": 5846,
            "화하는": 5847,
            "▁읽": 5848,
            "▁선박": 5849,
            "▁골프": 5850,
            "엑스": 5851,
            "올해": 5852,
            "▁명예": 5853,
            "▁패키": 5854,
            "▁테슬라": 5855,
            "▁평가했다": 5856,
            "▁43": 5857,
            "▁상황에": 5858,
            "▁44": 5859,
            "▁한번": 5860,
            "▁나머": 5861,
            "▁재활용": 5862,
            "아울러": 5863,
            "▁SK텔레콤": 5864,
            "LG": 5865,
            "▁돈이": 5866,
            "▁중심의": 5867,
            "▁굉": 5868,
            "되기": 5869,
            "▁전주": 5870,
            "▁고도": 5871,
            "▁규모로": 5872,
            "▁공직": 5873,
            "▁판결": 5874,
            "해진": 5875,
            "▁유사": 5876,
            "▁카페": 5877,
            "▁활용할": 5878,
            "▁분야의": 5879,
            "▁임시": 5880,
            "▁진행할": 5881,
            "▁표준": 5882,
            "▁상대적으로": 5883,
            "▁쌍": 5884,
            "▁상태다": 5885,
            "▁엘": 5886,
            "통상": 5887,
            "▁행동": 5888,
            "세요": 5889,
            "▁위협": 5890,
            "▁선진": 5891,
            "▁개인정보": 5892,
            "▁된다고": 5893,
            "▁권한": 5894,
            "니아": 5895,
            "▁감독": 5896,
            "▁재생": 5897,
            "▁방문해": 5898,
            "선이": 5899,
            "▁일으": 5900,
            "면적": 5901,
            "▁오프라인": 5902,
            "상으로": 5903,
            "체계": 5904,
            "단이": 5905,
            "릭터": 5906,
            "▁정말": 5907,
            "▁경찰은": 5908,
            "탄소": 5909,
            "이노베이션": 5910,
            "지수는": 5911,
            "▁사항": 5912,
            "▁굉장": 5913,
            "▁변호사": 5914,
            "▁가속": 5915,
            "▁다소": 5916,
            "종의": 5917,
            "▁물가": 5918,
            "센터를": 5919,
            "▁실험": 5920,
            "▁남아": 5921,
            "▁것처럼": 5922,
            "▁환경을": 5923,
            "▁공무원": 5924,
            "▁태양광": 5925,
            "테이": 5926,
            "▁대북": 5927,
            "▁임명": 5928,
            "검사": 5929,
            "▁기대된다": 5930,
            "시를": 5931,
            "▁p": 5932,
            "어도": 5933,
            "▁오르": 5934,
            "▁답변": 5935,
            "▁손실": 5936,
            "▁집계됐다": 5937,
            "▁소프트웨어": 5938,
            "▁모니터": 5939,
            "준다": 5940,
            "▁대해서": 5941,
            "▁현재까지": 5942,
            "건강": 5943,
            "▁J": 5944,
            "▁외에도": 5945,
            "▁대표의": 5946,
            "▁분류": 5947,
            "▁500": 5948,
            "▁취소": 5949,
            "▁차원에서": 5950,
            "▁제3": 5951,
            "▁리더": 5952,
            "군의": 5953,
            "▁새로": 5954,
            "▁나오고": 5955,
            "제에": 5956,
            "위의": 5957,
            "▁MZ세대": 5958,
            "▁4단계": 5959,
            "▁전략을": 5960,
            "▁그간": 5961,
            "▁직후": 5962,
            "시티": 5963,
            "▁후보는": 5964,
            "에게는": 5965,
            "▁지원할": 5966,
            "▁매출이": 5967,
            "아야": 5968,
            "▁반복": 5969,
            "▁안심": 5970,
            "▁비슷한": 5971,
            "재를": 5972,
            "▁그림": 5973,
            "▁없고": 5974,
            "▁대표이": 5975,
            "▁컨설팅": 5976,
            "99": 5977,
            "▁변화를": 5978,
            "▁수원": 5979,
            "▁컬": 5980,
            "법에": 5981,
            "▁실패": 5982,
            "▁한반도": 5983,
            "▁동아": 5984,
            "▁밖": 5985,
            "▁씨는": 5986,
            "신을": 5987,
            "▁기다": 5988,
            "▁강력한": 5989,
            "▁양국": 5990,
            "▁기조": 5991,
            "기능": 5992,
            "돼야": 5993,
            "▁CE": 5994,
            "▁수치": 5995,
            "▁실내": 5996,
            "▁기업들이": 5997,
            "IS": 5998,
            "▁발생하는": 5999,
            "▁얼마나": 6000,
            "▁추경": 6001,
            "▁생태계": 6002,
            "▁캐릭터": 6003,
            "▁질환": 6004,
            "▁사건을": 6005,
            "▁선제": 6006,
            "▁활발": 6007,
            "너지를": 6008,
            "정의": 6009,
            "▁제휴": 6010,
            "▁상대로": 6011,
            "▁되어": 6012,
            "▁갖추": 6013,
            "▁국회에서": 6014,
            "▁커지고": 6015,
            "과는": 6016,
            "▁전화": 6017,
            "▁법인": 6018,
            "▁비전": 6019,
            "▁정상회의": 6020,
            "계층": 6021,
            "▁현금": 6022,
            "▁착수": 6023,
            "당을": 6024,
            "요일": 6025,
            "▁가까이": 6026,
            "▁46": 6027,
            "▁정리": 6028,
            "▁총괄": 6029,
            "▁국토교통": 6030,
            "소비": 6031,
            "▁단백": 6032,
            "▁건립": 6033,
            "▁최대한": 6034,
            "▁본격적인": 6035,
            "총리는": 6036,
            "▁차단": 6037,
            "▁당내": 6038,
            "▁부처": 6039,
            "▁당초": 6040,
            "▁재무": 6041,
            "▁강화를": 6042,
            "▁198": 6043,
            "시킬": 6044,
            "▁서울대": 6045,
            "▁재건축": 6046,
            "호를": 6047,
            "▁넘게": 6048,
            "▁쓴": 6049,
            "려고": 6050,
            "▁작가": 6051,
            "▁지속적인": 6052,
            "됐고": 6053,
            "▁다르": 6054,
            "▁팬데믹": 6055,
            "▁밝혀": 6056,
            "한다면": 6057,
            "▁확진자는": 6058,
            "추진": 6059,
            "트남": 6060,
            "▁뭐": 6061,
            "▁형태로": 6062,
            "▁잇따": 6063,
            "▁보유하고": 6064,
            "라마": 6065,
            "▁상승했다": 6066,
            "벤처기업": 6067,
            "▁굉장히": 6068,
            "▁해상": 6069,
            "▁비중이": 6070,
            "▁ETF": 6071,
            "▁게시": 6072,
            "▁오래": 6073,
            "▁세상을": 6074,
            "▁균형": 6075,
            "▁단독": 6076,
            "an": 6077,
            "▁시가": 6078,
            "▁포인트": 6079,
            "철도": 6080,
            "메라": 6081,
            "대비": 6082,
            "▁전월": 6083,
            "제네카": 6084,
            "▁구성된": 6085,
            "주일": 6086,
            "▁잃": 6087,
            "▁받는다": 6088,
            "▁경제적": 6089,
            "스트라제네카": 6090,
            "려면": 6091,
            "▁공사": 6092,
            "까지는": 6093,
            "류를": 6094,
            "만을": 6095,
            "▁유력": 6096,
            "▁목소리를": 6097,
            "▁되지": 6098,
            "▁활성화를": 6099,
            "성은": 6100,
            "▁안전한": 6101,
            "▁직업": 6102,
            "▁니": 6103,
            "만에": 6104,
            "상은": 6105,
            "▁통일": 6106,
            "▁빛": 6107,
            "▁쉽지": 6108,
            "▁획득": 6109,
            "▁설정": 6110,
            "이면": 6111,
            "대에서": 6112,
            "▁선임": 6113,
            "보면": 6114,
            "▁훨": 6115,
            "▁합리": 6116,
            "▁술": 6117,
            "▁과도": 6118,
            "▁받지": 6119,
            "시부터": 6120,
            "▁불가능": 6121,
            "▁확대해": 6122,
            "▁심의": 6123,
            "▁진행한": 6124,
            "▁뮤": 6125,
            "▁커피": 6126,
            "스1": 6127,
            "▁적절": 6128,
            "▁플라스틱": 6129,
            "▁장애인": 6130,
            "거든": 6131,
            "▁플레이": 6132,
            "이와": 6133,
            "▁CC": 6134,
            "주간": 6135,
            "▁대통령과": 6136,
            "▁지적이": 6137,
            "▁가동": 6138,
            "▁훨씬": 6139,
            "▁Y": 6140,
            "▁배치": 6141,
            "▁31": 6142,
            "▁의심": 6143,
            "▁W": 6144,
            "▁자치": 6145,
            "▁내용이": 6146,
            "세는": 6147,
            "▁내다": 6148,
            "▁대기": 6149,
            "▁스페": 6150,
            "▁낼": 6151,
            "▁업무를": 6152,
            "▁칼": 6153,
            "22": 6154,
            "▁감사원": 6155,
            "개국": 6156,
            "센터에서": 6157,
            "▁바다": 6158,
            "▁세금": 6159,
            "온은": 6160,
            "▁부담을": 6161,
            "▁518": 6162,
            "▁초과": 6163,
            "▁들여": 6164,
            "▁나와": 6165,
            "▁청구": 6166,
            "▁송영길": 6167,
            "▁꼭": 6168,
            "▁스트": 6169,
            "▁병원": 6170,
            "▁모임": 6171,
            "▁향해": 6172,
            "지면": 6173,
            "▁당일": 6174,
            "▁이상을": 6175,
            "▁기울": 6176,
            "▁객": 6177,
            "▁졸업": 6178,
            "▁것이라": 6179,
            "▁원격": 6180,
            "▁모색": 6181,
            "▁성공을": 6182,
            "▁증거": 6183,
            "▁아이디어": 6184,
            "▁최저임금": 6185,
            "▁바뀌": 6186,
            "등급": 6187,
            "▁절차를": 6188,
            "▁포스코": 6189,
            "▁나왔": 6190,
            "▁수준이다": 6191,
            "▁모양": 6192,
            "▁착용": 6193,
            "▁파트너십": 6194,
            "만원을": 6195,
            "▁마찬": 6196,
            "▁광역": 6197,
            "권이": 6198,
            "▁후보가": 6199,
            "▁t": 6200,
            "▁있지": 6201,
            "▁유도": 6202,
            "▁올해는": 6203,
            "▁주고": 6204,
            "세로": 6205,
            "▁싶은": 6206,
            "▁패션": 6207,
            "▁풀이된다": 6208,
            "▁사장": 6209,
            "건이": 6210,
            "▁참여한": 6211,
            "로드": 6212,
            "▁한정": 6213,
            "▁하기": 6214,
            "▁중간": 6215,
            "과정": 6216,
            "▁자회사": 6217,
            "위원회를": 6218,
            "▁의뢰": 6219,
            "▁유입": 6220,
            "▁X": 6221,
            "공정": 6222,
            "동물": 6223,
            "▁모빌리티": 6224,
            "▁직무": 6225,
            "▁3개월": 6226,
            "▁미래를": 6227,
            "▁뜨": 6228,
            "▁섭취": 6229,
            "표를": 6230,
            "▁종로": 6231,
            "▁나눠": 6232,
            "거든요": 6233,
            "▁달하는": 6234,
            "▁서초": 6235,
            "▁나오는": 6236,
            "▁수수료": 6237,
            "상황": 6238,
            "▁글을": 6239,
            "▁국내에서": 6240,
            "곳에": 6241,
            "▁고양": 6242,
            "됐습니다": 6243,
            "만으로": 6244,
            "▁선물": 6245,
            "조사를": 6246,
            "▁아스트라제네카": 6247,
            "▁못하는": 6248,
            "체가": 6249,
            "▁찾는": 6250,
            "구청": 6251,
            "▁높이": 6252,
            "▁내용은": 6253,
            "▁세부": 6254,
            "▁쉬": 6255,
            "백화점": 6256,
            "▁참석해": 6257,
            "소시": 6258,
            "▁답했다": 6259,
            "심의": 6260,
            "▁운영하고": 6261,
            "▁이유는": 6262,
            "▁실무": 6263,
            "▁우리의": 6264,
            "▁본인": 6265,
            "▁겁니다": 6266,
            "▁느끼": 6267,
            "리로": 6268,
            "시킨": 6269,
            "계약": 6270,
            "▁적합": 6271,
            "▁기반의": 6272,
            "▁폐기": 6273,
            "▁빼": 6274,
            "테인": 6275,
            "플레이션": 6276,
            "▁뿐만": 6277,
            "ED": 6278,
            "▁최고의": 6279,
            "지검": 6280,
            "▁하며": 6281,
            "▁사용하는": 6282,
            "드로": 6283,
            "만명": 6284,
            "▁자영업": 6285,
            "▁권고": 6286,
            "겠다며": 6287,
            "▁수사를": 6288,
            "어로": 6289,
            "▁중대": 6290,
            "우고": 6291,
            "훼손": 6292,
            "▁사는": 6293,
            "▁참여해": 6294,
            "▁높다": 6295,
            "스러운": 6296,
            "복합": 6297,
            "▁부작용": 6298,
            "▁필요하다": 6299,
            "▁운전": 6300,
            "소는": 6301,
            "CT": 6302,
            "▁참여하는": 6303,
            "공동": 6304,
            "▁결과가": 6305,
            "판매": 6306,
            "▁모아": 6307,
            "가량": 6308,
            "건으로": 6309,
            "▁1위를": 6310,
            "▁관람": 6311,
            "▁확대를": 6312,
            "▁협약을": 6313,
            "▁75": 6314,
            "▁하겠다고": 6315,
            "해온": 6316,
            "▁덜": 6317,
            "▁보조": 6318,
            "▁곳이": 6319,
            "자금": 6320,
            "히는": 6321,
            "길을": 6322,
            "▁사장은": 6323,
            "▁1호": 6324,
            "▁기획재정부": 6325,
            "시켰": 6326,
            "진이": 6327,
            "시까지": 6328,
            "번째": 6329,
            "▁줄어들": 6330,
            "▁설비": 6331,
            "▁핀": 6332,
            "호텔": 6333,
            "▁단일": 6334,
            "과장": 6335,
            "▁수준을": 6336,
            "▁제외한": 6337,
            "▁주가가": 6338,
            "▁20대": 6339,
            "▁4년": 6340,
            "▁의혹을": 6341,
            "▁러시아": 6342,
            "▁위원장은": 6343,
            "▁전망했다": 6344,
            "▁됐다고": 6345,
            "▁품목": 6346,
            "▁지침": 6347,
            "▁정부와": 6348,
            "▁불구하고": 6349,
            "▁84": 6350,
            "▁진행했다": 6351,
            "점은": 6352,
            "다운": 6353,
            "▁진행된": 6354,
            "▁참여할": 6355,
            "방역": 6356,
            "▁확인됐다": 6357,
            "적을": 6358,
            "▁가까운": 6359,
            "▁자체가": 6360,
            "▁명확": 6361,
            "▁꿈꾸는": 6362,
            "이라도": 6363,
            "▁순매": 6364,
            "다른": 6365,
            "▁중개": 6366,
            "▁컴퓨": 6367,
            "평등": 6368,
            "백신": 6369,
            "▁원장은": 6370,
            "▁나선다": 6371,
            "회복": 6372,
            "▁노출": 6373,
            "분석": 6374,
            "종합": 6375,
            "▁온라인으로": 6376,
            "구의": 6377,
            "▁행사를": 6378,
            "▁짓": 6379,
            "▁예고": 6380,
            "▁대표와": 6381,
            "물질": 6382,
            "▁시기": 6383,
            "▁정세": 6384,
            "하라고": 6385,
            "▁매장": 6386,
            "▁자사": 6387,
            "▁분기": 6388,
            "▁나머지": 6389,
            "▁자신이": 6390,
            "국가": 6391,
            "분에": 6392,
            "▁발급": 6393,
            "▁중에": 6394,
            "▁걷": 6395,
            "전에": 6396,
            "▁의지를": 6397,
            "해양": 6398,
            "▁동참": 6399,
            "임대": 6400,
            "▁허위": 6401,
            "므로": 6402,
            "부모": 6403,
            "▁규모는": 6404,
            "▁베트남": 6405,
            "▁유행": 6406,
            "▁주차": 6407,
            "▁풍부": 6408,
            "▁선수": 6409,
            "▁하다": 6410,
            "비용": 6411,
            "힌다": 6412,
            "▁이용한": 6413,
            "▁뜻을": 6414,
            "▁없을": 6415,
            "▁머스크": 6416,
            "▁전세": 6417,
            "▁구입": 6418,
            "▁열리는": 6419,
            "선의": 6420,
            "대응": 6421,
            "▁점도": 6422,
            "▁욕": 6423,
            "감염": 6424,
            "▁영양": 6425,
            "▁가능해": 6426,
            "▁대표적인": 6427,
            "▁꼬": 6428,
            "▁노하우": 6429,
            "▁49": 6430,
            "▁나올": 6431,
            "망을": 6432,
            "▁보통": 6433,
            "▁탓": 6434,
            "▁선별": 6435,
            "▁개혁": 6436,
            "나무": 6437,
            "▁코스닥": 6438,
            "▁자리를": 6439,
            "▁낮아": 6440,
            "▁지역에": 6441,
            "▁토대로": 6442,
            "▁중고": 6443,
            "▁온실가스": 6444,
            "▁적용해": 6445,
            "▁확충": 6446,
            "▁융합": 6447,
            "▁리스크": 6448,
            "▁짧": 6449,
            "위원회가": 6450,
            "▁미래에": 6451,
            "차례": 6452,
            "▁재미": 6453,
            "산을": 6454,
            "▁대만": 6455,
            "화한": 6456,
            "▁연내": 6457,
            "▁프랑스": 6458,
            "▁자주": 6459,
            "▁허가": 6460,
            "▁지원하고": 6461,
            "▁건의": 6462,
            "헬스케어": 6463,
            "▁넥": 6464,
            "RNA": 6465,
            "사항": 6466,
            "▁공수처": 6467,
            "▁인터뷰에서": 6468,
            "▁늘고": 6469,
            "▁겪고": 6470,
            "▁개념": 6471,
            "센터는": 6472,
            "▁펼쳐": 6473,
            "았던": 6474,
            "▁뷰": 6475,
            "▁다가": 6476,
            "▁뉴딜": 6477,
            "▁유기": 6478,
            "▁임직원": 6479,
            "▁사업이": 6480,
            "▁바라": 6481,
            "▁당연": 6482,
            "생을": 6483,
            "▁개설": 6484,
            "장비": 6485,
            "▁거래를": 6486,
            "▁교체": 6487,
            "▁검사를": 6488,
            "우선": 6489,
            "▁본격적으로": 6490,
            "▁2030년": 6491,
            "됐던": 6492,
            "▁경고": 6493,
            "▁48": 6494,
            "▁접속": 6495,
            "▁추진할": 6496,
            "기고": 6497,
            "▁4만": 6498,
            "그러나": 6499,
            "▁조달": 6500,
            "▁연방": 6501,
            "▁가는": 6502,
            "▁아니냐는": 6503,
            "내고": 6504,
            "▁목표를": 6505,
            "▁개방": 6506,
            "▁지배": 6507,
            "▁아버": 6508,
            "위기": 6509,
            "▁이것": 6510,
            "▁현장에서": 6511,
            "법이": 6512,
            "▁안팎": 6513,
            "서가": 6514,
            "일이": 6515,
            "▁안정적인": 6516,
            "드가": 6517,
            "MC": 6518,
            "▁주최": 6519,
            "▁아프": 6520,
            "▁전담": 6521,
            "래프": 6522,
            "▁서버": 6523,
            "▁업계에": 6524,
            "재해": 6525,
            "치지": 6526,
            "▁기회가": 6527,
            "▁시즌": 6528,
            "▁인기를": 6529,
            "▁충족": 6530,
            "니어": 6531,
            "▁실적을": 6532,
            "▁슈퍼": 6533,
            "▁미세": 6534,
            "▁추진하는": 6535,
            "▁오랜": 6536,
            "▁빨리": 6537,
            "개혁": 6538,
            "▁도내": 6539,
            "▁총장이": 6540,
            "▁기대하고": 6541,
            "▁완전히": 6542,
            "▁당부했다": 6543,
            "▁테스트": 6544,
            "점검": 6545,
            "정부는": 6546,
            "▁치료제": 6547,
            "▁내세": 6548,
            "00억원": 6549,
            "▁이같은": 6550,
            "▁주행": 6551,
            "▁무료": 6552,
            "▁이름을": 6553,
            "▁나아가": 6554,
            "▁당대표": 6555,
            "▁창원": 6556,
            "▁기후변화": 6557,
            "▁알아": 6558,
            "군이": 6559,
            "유의": 6560,
            "▁피부": 6561,
            "센티브": 6562,
            "▁일단": 6563,
            "▁성남": 6564,
            "▁지금은": 6565,
            "▁샤": 6566,
            "인력": 6567,
            "▁지사": 6568,
            "▁사례가": 6569,
            "▁세포": 6570,
            "▁문을": 6571,
            "TT": 6572,
            "재형": 6573,
            "▁인지": 6574,
            "▁생각을": 6575,
            "▁조국": 6576,
            "▁나설": 6577,
            "지난해": 6578,
            "용차": 6579,
            "▁선정된": 6580,
            "소시엄": 6581,
            "결제": 6582,
            "▁대면": 6583,
            "▁사업의": 6584,
            "▁등급": 6585,
            "▁높이고": 6586,
            "순환": 6587,
            "▁강제": 6588,
            "▁05": 6589,
            "▁메뉴": 6590,
            "주민": 6591,
            "책임": 6592,
            "▁영향으로": 6593,
            "▁휴대전": 6594,
            "27": 6595,
            "적이": 6596,
            "▁아우": 6597,
            "▁기업을": 6598,
            "이라면": 6599,
            "▁CEO": 6600,
            "▁나누": 6601,
            "▁당장": 6602,
            "▁습": 6603,
            "▁일환": 6604,
            "나가": 6605,
            "▁단기": 6606,
            "닷컴": 6607,
            "리어": 6608,
            "▁급격": 6609,
            "▁노력하겠다고": 6610,
            "포럼": 6611,
            "▁않으면": 6612,
            "진은": 6613,
            "▁피해자": 6614,
            "▁걱정": 6615,
            "▁준수": 6616,
            "▁부당": 6617,
            "▁참석한": 6618,
            "▁하면서": 6619,
            "▁여부": 6620,
            "▁카메라": 6621,
            "결과": 6622,
            "단의": 6623,
            "▁김종": 6624,
            "전한": 6625,
            "▁규모가": 6626,
            "▁이틀": 6627,
            "▁추세": 6628,
            "▁쇼": 6629,
            "▁후속": 6630,
            "시와": 6631,
            "행정": 6632,
            "▁2배": 6633,
            "대와": 6634,
            "받았다": 6635,
            "사무": 6636,
            "▁내용의": 6637,
            "▁사실이": 6638,
            "▁자료를": 6639,
            "▁이어지고": 6640,
            "▁있었던": 6641,
            "▁의미가": 6642,
            "▁중국의": 6643,
            "▁질문에": 6644,
            "▁특징이다": 6645,
            "▁56": 6646,
            "▁측정": 6647,
            "▁과세": 6648,
            "▁순간": 6649,
            "▁인센티브": 6650,
            "기술을": 6651,
            "▁김기": 6652,
            "가치": 6653,
            "▁거부": 6654,
            "▁사이버": 6655,
            "리즘": 6656,
            "▁중구": 6657,
            "35": 6658,
            "▁주말": 6659,
            "▁말까지": 6660,
            "▁드론": 6661,
            "▁기여할": 6662,
            "코로나19": 6663,
            "▁자원": 6664,
            "▁압박": 6665,
            "▁지역에서": 6666,
            "식으로": 6667,
            "수산": 6668,
            "국내": 6669,
            "▁허브": 6670,
            "▁제시했다": 6671,
            "단에": 6672,
            "▁써": 6673,
            "▁벗어나": 6674,
            "까요": 6675,
            "▁59": 6676,
            "▁일각": 6677,
            "▁생각이": 6678,
            "▁인플레이션": 6679,
            "▁과제": 6680,
            "▁과학기술정보통신": 6681,
            "▁브리핑": 6682,
            "▁딸": 6683,
            "공장": 6684,
            "▁내에": 6685,
            "리며": 6686,
            "▁오피스": 6687,
            "▁DB": 6688,
            "▁모델을": 6689,
            "▁실행": 6690,
            "▁접종이": 6691,
            "▁수업": 6692,
            "겠지만": 6693,
            "▁베이": 6694,
            "▁제거": 6695,
            "▁부담이": 6696,
            "▁구간": 6697,
            "▁하나로": 6698,
            "▁가능성도": 6699,
            "조차": 6700,
            "▁의결": 6701,
            "▁추진한다": 6702,
            "▁최신": 6703,
            "km": 6704,
            "▁중장": 6705,
            "▁하나의": 6706,
            "▁관계자": 6707,
            "▁잠재": 6708,
            "▁꽃": 6709,
            "어진": 6710,
            "▁미리": 6711,
            "민주": 6712,
            "▁영업이익은": 6713,
            "▁이상이": 6714,
            "▁고통": 6715,
            "4G": 6716,
            "▁강화하고": 6717,
            "▁강원도": 6718,
            "▁치열": 6719,
            "▁후원": 6720,
            "▁못했다": 6721,
            "수로": 6722,
            "▁말한다": 6723,
            "▁만들고": 6724,
            "▁분야에": 6725,
            "▁유출": 6726,
            "▁초청": 6727,
            "FT": 6728,
            "▁던": 6729,
            "▁노래": 6730,
            "▁유동": 6731,
            "▁내에서": 6732,
            "▁발전을": 6733,
            "▁키워": 6734,
            "광역": 6735,
            "인증": 6736,
            "▁신임": 6737,
            "국에": 6738,
            "형을": 6739,
            "▁RD": 6740,
            "▁입법": 6741,
            "▁연구를": 6742,
            "로직": 6743,
            "▁한강": 6744,
            "없는": 6745,
            "▁돌봄": 6746,
            "▁상임": 6747,
            "▁이중": 6748,
            "비가": 6749,
            "해주": 6750,
            "▁높여": 6751,
            "어가": 6752,
            "▁크다": 6753,
            "기반": 6754,
            "▁춘": 6755,
            "신고": 6756,
            "권은": 6757,
            "▁머니": 6758,
            "그룹은": 6759,
            "▁생존": 6760,
            "TS": 6761,
            "▁점이": 6762,
            "▁기업은": 6763,
            "대회": 6764,
            "일은": 6765,
            "글로벌": 6766,
            "만이": 6767,
            "▁유니": 6768,
            "인들이": 6769,
            "▁숲": 6770,
            "▁2021052": 6771,
            "▁편리": 6772,
            "▁고객이": 6773,
            "▁마음을": 6774,
            "▁1회": 6775,
            "▁이외": 6776,
            "▁국민이": 6777,
            "▁들어가": 6778,
            "▁모니터링": 6779,
            "▁도쿄": 6780,
            "▁전수": 6781,
            "▁것입니다": 6782,
            "0년대": 6783,
            "▁기업으로": 6784,
            "▁검색": 6785,
            "▁재난지원금": 6786,
            "개로": 6787,
            "▁북미": 6788,
            "▁극대": 6789,
            "000여": 6790,
            "창업": 6791,
            "▁내린": 6792,
            "▁상업": 6793,
            "사용": 6794,
            "▁말이": 6795,
            "▁차이가": 6796,
            "▁기업들의": 6797,
            "▁가맹": 6798,
            "계획을": 6799,
            "중공업": 6800,
            "사업에": 6801,
            "▁삶을": 6802,
            "전이": 6803,
            "▁저장": 6804,
            "▁고발": 6805,
            "▁저렴": 6806,
            "▁폭염": 6807,
            "▁전략적": 6808,
            "▁참석했다": 6809,
            "▁s": 6810,
            "▁부사": 6811,
            "플랫폼": 6812,
            "어서": 6813,
            "▁보관": 6814,
            "▁선보인다": 6815,
            "▁계좌": 6816,
            "▁단백질": 6817,
            "점에": 6818,
            "84": 6819,
            "▁마친": 6820,
            "▁의해": 6821,
            "▁블랙": 6822,
            "▁협조": 6823,
            "건의": 6824,
            "화해": 6825,
            "▁국산": 6826,
            "▁다하겠다고": 6827,
            "▁mRNA": 6828,
            "▁음성": 6829,
            "사들이": 6830,
            "▁괴": 6831,
            "▁2014년": 6832,
            "▁구축을": 6833,
            "통상자원": 6834,
            "▁전문가들은": 6835,
            "시장은": 6836,
            "트가": 6837,
            "26": 6838,
            "85": 6839,
            "▁있다면": 6840,
            "▁전세계": 6841,
            "▁적이": 6842,
            "모빌리티": 6843,
            "이용": 6844,
            "▁주가는": 6845,
            "같은": 6846,
            "▁디스플레이": 6847,
            "▁합동": 6848,
            "▁창작": 6849,
            "▁시작된": 6850,
            "▁체결했다고": 6851,
            "▁금액": 6852,
            "▁쓸": 6853,
            "▁적은": 6854,
            "▁기업에": 6855,
            "▁발의": 6856,
            "▁어려워": 6857,
            "재산": 6858,
            "▁정확한": 6859,
            "▁연합": 6860,
            "▁원활": 6861,
            "퍼니": 6862,
            "▁결혼": 6863,
            "▁산림": 6864,
            "▁교류": 6865,
            "파이": 6866,
            "▁법적": 6867,
            "▁인물": 6868,
            "준비": 6869,
            "▁앞장": 6870,
            "▁상무": 6871,
            "▁철거": 6872,
            "▁눈에": 6873,
            "목을": 6874,
            "▁회의를": 6875,
            "▁호소": 6876,
            "▁공개했다": 6877,
            "▁이탈": 6878,
            "▁같다": 6879,
            "▁불가피": 6880,
            "▁했던": 6881,
            "중에": 6882,
            "▁1명": 6883,
            "▁아주": 6884,
            "▁이들이": 6885,
            "▁테마": 6886,
            "▁제고": 6887,
            "▁밖에": 6888,
            "였습니다": 6889,
            "▁가해": 6890,
            "▁얼굴": 6891,
            "▁일정을": 6892,
            "들로": 6893,
            "▁겨냥": 6894,
            "▁공략": 6895,
            "▁평생": 6896,
            "▁배당": 6897,
            "카카오": 6898,
            "▁입증": 6899,
            "▁아마존": 6900,
            "▁물량": 6901,
            "77": 6902,
            "▁조언": 6903,
            "▁화학": 6904,
            "▁등교": 6905,
            "하이닉": 6906,
            "인에": 6907,
            "▁틀": 6908,
            "상담": 6909,
            "▁발생할": 6910,
            "▁있어야": 6911,
            "▁꺼": 6912,
            "는데요": 6913,
            "▁전망된다": 6914,
            "▁법안": 6915,
            "▁3분기": 6916,
            "▁전쟁": 6917,
            "▁확대하고": 6918,
            "플릭": 6919,
            "▁양극": 6920,
            "▁달한다": 6921,
            "습니까": 6922,
            "TN": 6923,
            "▁올림픽": 6924,
            "차가": 6925,
            "▁미국과": 6926,
            "▁불러": 6927,
            "정비": 6928,
            "▁특화": 6929,
            "34": 6930,
            "▁산하": 6931,
            "▁백신의": 6932,
            "래프톤": 6933,
            "유통": 6934,
            "▁지역사회": 6935,
            "곳에서": 6936,
            "▁높이는": 6937,
            "▁목적으로": 6938,
            "▁솔": 6939,
            "이었던": 6940,
            "▁추구": 6941,
            "▁같다고": 6942,
            "▁명이": 6943,
            "▁솔루션을": 6944,
            "▁확실": 6945,
            "▁든": 6946,
            "시키고": 6947,
            "▁제도를": 6948,
            "분간": 6949,
            "▁주의": 6950,
            "▁에이": 6951,
            "▁쏠": 6952,
            "▁SK이노베이션": 6953,
            "▁부족한": 6954,
            "폭력": 6955,
            "▁점차": 6956,
            "▁감소했다": 6957,
            "▁움직임": 6958,
            "▁상징": 6959,
            "▁연료": 6960,
            "▁담긴": 6961,
            "▁웹툰": 6962,
            "▁이끌어": 6963,
            "▁자리에서": 6964,
            "▁챙": 6965,
            "▁판정을": 6966,
            "▁회견을": 6967,
            "수익": 6968,
            "었지만": 6969,
            "뉴스1": 6970,
            "▁속에": 6971,
            "▁올린": 6972,
            "▁법정": 6973,
            "든지": 6974,
            "65": 6975,
            "▁지역경제": 6976,
            "▁내달": 6977,
            "▁김포": 6978,
            "▁시대에": 6979,
            "▁보도했다": 6980,
            "▁전원": 6981,
            "▁올렸다": 6982,
            "▁별도": 6983,
            "▁사업자": 6984,
            "▁비교해": 6985,
            "▁했지만": 6986,
            "▁국회의원": 6987,
            "▁북한이": 6988,
            "주에": 6989,
            "▁시사": 6990,
            "▁필요하다는": 6991,
            "▁특성": 6992,
            "▁차별화된": 6993,
            "▁누리": 6994,
            "▁A씨가": 6995,
            "만5": 6996,
            "▁상승한": 6997,
            "▁정보통신": 6998,
            "등록": 6999,
            "▁여파": 7000,
            "▁불리는": 7001,
            "▁구분": 7002,
            "▁이벤트를": 7003,
            "면에": 7004,
            "▁굳": 7005,
            "▁미국이": 7006,
            "▁합격": 7007,
            "▁연준": 7008,
            "▁있는지": 7009,
            "▁안보": 7010,
            "▁노후": 7011,
            "▁합병": 7012,
            "널리": 7013,
            "▁경제부": 7014,
            "▁개선을": 7015,
            "리드": 7016,
            "예약": 7017,
            "▁150": 7018,
            "▁밝혔다이번": 7019,
            "▁실증": 7020,
            "▁문제에": 7021,
            "▁화장품": 7022,
            "미술": 7023,
            "▁지연": 7024,
            "직을": 7025,
            "▁300": 7026,
            "▁무선": 7027,
            "바이오로직": 7028,
            "▁자세한": 7029,
            "74": 7030,
            "▁내놨": 7031,
            "▁채택": 7032,
            "▁스튜디오": 7033,
            "▁사기": 7034,
            "졌다고": 7035,
            "▁진행하는": 7036,
            "▁새벽": 7037,
            "▁포장": 7038,
            "과학기술": 7039,
            "정상회담": 7040,
            "▁남양": 7041,
            "사진": 7042,
            "스럽게": 7043,
            "처를": 7044,
            "▁자랑": 7045,
            "▁제조업": 7046,
            "▁만난": 7047,
            "▁비난": 7048,
            "멤버": 7049,
            "▁아름": 7050,
            "▁아침": 7051,
            "예산": 7052,
            "▁홀": 7053,
            "경기": 7054,
            "▁주재": 7055,
            "터를": 7056,
            "▁대책을": 7057,
            "▁종로구": 7058,
            "실장": 7059,
            "▁의견이": 7060,
            "▁즉시": 7061,
            "▁제정": 7062,
            "▁느낌": 7063,
            "▁보증": 7064,
            "▁일시": 7065,
            "▁기록한": 7066,
            "▁GT": 7067,
            "나갈": 7068,
            "▁뽑": 7069,
            "판을": 7070,
            "▁늘어나": 7071,
            "▁관광객": 7072,
            "방을": 7073,
            "신용": 7074,
            "▁6개": 7075,
            "▁식당": 7076,
            "▁삶의": 7077,
            "활동을": 7078,
            "▁차질": 7079,
            "어는": 7080,
            "▁해운": 7081,
            "인공": 7082,
            "▁취재": 7083,
            "▁마켓": 7084,
            "▁드라마": 7085,
            "▁밑": 7086,
            "경북": 7087,
            "▁집을": 7088,
            "▁군사": 7089,
            "100": 7090,
            "▁교사": 7091,
            "콘텐츠": 7092,
            "▁연말": 7093,
            "제의": 7094,
            "▁임금": 7095,
            "▁주주": 7096,
            "▁올려": 7097,
            "▁절감": 7098,
            "▁썼": 7099,
            "▁컸": 7100,
            "▁전파": 7101,
            "▁통상": 7102,
            "▁미사일": 7103,
            "▁간의": 7104,
            "▁확대할": 7105,
            "소로": 7106,
            "▁기타": 7107,
            "202": 7108,
            "▁P4G": 7109,
            "▁건강한": 7110,
            "▁중립": 7111,
            "종을": 7112,
            "▁양산": 7113,
            "해주는": 7114,
            "대행": 7115,
            "▁2조": 7116,
            "90": 7117,
            "▁세계적인": 7118,
            "로의": 7119,
            "▁김영": 7120,
            "▁폐쇄": 7121,
            "▁협력해": 7122,
            "별로는": 7123,
            "미래": 7124,
            "▁입장이다": 7125,
            "▁봤": 7126,
            "▁진행됐다": 7127,
            "▁특별한": 7128,
            "▁신선": 7129,
            "사이언": 7130,
            "보증": 7131,
            "▁띄": 7132,
            "전기": 7133,
            "EC": 7134,
            "▁뿌": 7135,
            "청에": 7136,
            "▁카카오뱅크": 7137,
            "테인먼트": 7138,
            "▁시가총": 7139,
            "▁매출액": 7140,
            "드린": 7141,
            "▁반박": 7142,
            "▁모르": 7143,
            "▁단속": 7144,
            "▁결정을": 7145,
            "계에": 7146,
            "었다는": 7147,
            "수칙": 7148,
            "▁시세": 7149,
            "▁10만": 7150,
            "속도로": 7151,
            "서비스를": 7152,
            "비는": 7153,
            "▁자문": 7154,
            "▁수익을": 7155,
            "미국": 7156,
            "▁작업을": 7157,
            "▁공간을": 7158,
            "▁대선주": 7159,
            "▁촉진": 7160,
            "자리": 7161,
            "하겠다며": 7162,
            "▁침해": 7163,
            "처리": 7164,
            "▁전개": 7165,
            "▁총리": 7166,
            "았고": 7167,
            "▁컨소시엄": 7168,
            "▁삭": 7169,
            "▁참여를": 7170,
            "▁비행": 7171,
            "re": 7172,
            "하면서도": 7173,
            "▁회사는": 7174,
            "▁만들기": 7175,
            "▁58": 7176,
            "청이": 7177,
            "씨를": 7178,
            "▁CBS": 7179,
            "▁지상": 7180,
            "하겠다": 7181,
            "스티": 7182,
            "하나": 7183,
            "un": 7184,
            "▁블루": 7185,
            "▁휘": 7186,
            "▁사용자": 7187,
            "▁멈": 7188,
            "▁선보일": 7189,
            "리케이션": 7190,
            "가에": 7191,
            "▁요즘": 7192,
            "▁목소리가": 7193,
            "▁분위기": 7194,
            "거운": 7195,
            "져야": 7196,
            "연구원은": 7197,
            "▁42": 7198,
            "▁신약": 7199,
            "▁충청": 7200,
            "▁메시지를": 7201,
            "▁옵": 7202,
            "법상": 7203,
            "201": 7204,
            "▁부실": 7205,
            "▁접목": 7206,
            "▁민주당은": 7207,
            "▁떨어진": 7208,
            "▁54": 7209,
            "▁머니S": 7210,
            "▁조절": 7211,
            "▁2개": 7212,
            "▁타이": 7213,
            "가로": 7214,
            "▁전환을": 7215,
            "▁능력": 7216,
            "▁이르": 7217,
            "▁계기가": 7218,
            "▁내다봤다": 7219,
            "▁부인": 7220,
            "▁듣고": 7221,
            "식은": 7222,
            "▁높일": 7223,
            "▁2025년까지": 7224,
            "▁알려진": 7225,
            "▁석유": 7226,
            "책을": 7227,
            "▁연락": 7228,
            "▁도약": 7229,
            "▁한국은": 7230,
            "▁야권": 7231,
            "개선": 7232,
            "자치단체": 7233,
            "oo": 7234,
            "▁NFT": 7235,
            "세종": 7236,
            "▁Q": 7237,
            "▁줄어든": 7238,
            "▁앞에서": 7239,
            "음에도": 7240,
            "제와": 7241,
            "▁문의": 7242,
            "▁라이프": 7243,
            "질의": 7244,
            "하려면": 7245,
            "▁방식을": 7246,
            "당은": 7247,
            "▁사모": 7248,
            "▁논문": 7249,
            "▁백신은": 7250,
            "▁남은": 7251,
            "▁카카오톡": 7252,
            "위에서": 7253,
            "께서": 7254,
            "▁보인다고": 7255,
            "공단": 7256,
            "해왔": 7257,
            "▁회담": 7258,
            "▁발언을": 7259,
            "억원에": 7260,
            "청사에서": 7261,
            "▁혹은": 7262,
            "현실": 7263,
            "▁인하": 7264,
            "▁무역": 7265,
            "▁많았다": 7266,
            "▁겪는": 7267,
            "▁높였다": 7268,
            "▁생명": 7269,
            "▁양자": 7270,
            "▁넷플릭": 7271,
            "31": 7272,
            "졌습니다": 7273,
            "▁프레": 7274,
            "▁최재형": 7275,
            "▁KBS": 7276,
            "▁줄었다": 7277,
            "▁대변인은": 7278,
            "▁52": 7279,
            "▁산업통상자원": 7280,
            "▁산학": 7281,
            "▁손을": 7282,
            "국민의": 7283,
            "수석": 7284,
            "적으로는": 7285,
            "됐으며": 7286,
            "▁전망이": 7287,
            "▁이사회": 7288,
            "▁의한": 7289,
            "연금": 7290,
            "월드": 7291,
            "▁체결했다": 7292,
            "▁곡": 7293,
            "PG": 7294,
            "▁직전": 7295,
            "▁결과에": 7296,
            "▁빗": 7297,
            "▁이게": 7298,
            "▁방법을": 7299,
            "사업자": 7300,
            "▁동맹": 7301,
            "▁자가": 7302,
            "소재": 7303,
            "▁미치는": 7304,
            "▁표시": 7305,
            "▁대상이": 7306,
            "▁시대를": 7307,
            "포르": 7308,
            "간다": 7309,
            "▁간담회를": 7310,
            "참여": 7311,
            "트의": 7312,
            "▁늘려": 7313,
            "▁총장의": 7314,
            "▁대학생": 7315,
            "기정": 7316,
            "▁산업의": 7317,
            "▁꼽힌다": 7318,
            "▁냈다": 7319,
            "▁정세균": 7320,
            "▁배제": 7321,
            "▁노인": 7322,
            "▁공급망": 7323,
            "▁벽": 7324,
            "처는": 7325,
            "▁대리": 7326,
            "▁포럼": 7327,
            "▁부분이": 7328,
            "▁비용을": 7329,
            "▁유의": 7330,
            "▁도착": 7331,
            "▁반등": 7332,
            "많은": 7333,
            "▁기존의": 7334,
            "▁텐": 7335,
            "▁10개": 7336,
            "▁고성": 7337,
            "▁한층": 7338,
            "용품": 7339,
            "▁신재생": 7340,
            "▁1인당": 7341,
            "▁흘": 7342,
            "▁1주택": 7343,
            "▁요금": 7344,
            "▁1심": 7345,
            "▁가격을": 7346,
            "▁마쳤다": 7347,
            "서의": 7348,
            "중개": 7349,
            "어난": 7350,
            "▁증명": 7351,
            "검찰": 7352,
            "주기": 7353,
            "▁출입": 7354,
            "▁주간": 7355,
            "▁참고": 7356,
            "경쟁": 7357,
            "혁명": 7358,
            "▁김현": 7359,
            "▁힐": 7360,
            "층의": 7361,
            "▁OTT": 7362,
            "▁외에": 7363,
            "퍼링": 7364,
            "▁페이스북에": 7365,
            "▁다수": 7366,
            "▁긴밀": 7367,
            "▁EN": 7368,
            "▁사진을": 7369,
            "▁노무": 7370,
            "▁해당하는": 7371,
            "▁채권": 7372,
            "▁렌": 7373,
            "▁이마트": 7374,
            "▁데다": 7375,
            "고요": 7376,
            "단으로": 7377,
            "잡고": 7378,
            "은행이": 7379,
            "▁SK하이닉": 7380,
            "있다": 7381,
            "▁원으로": 7382,
            "▁감염병": 7383,
            "컴퍼니": 7384,
            "▁논의를": 7385,
            "▁심각한": 7386,
            "구에": 7387,
            "▁따라서": 7388,
            "▁시는": 7389,
            "▁제목": 7390,
            "▁제주도": 7391,
            "▁홈페이지": 7392,
            "▁한국이": 7393,
            "▁됐다며": 7394,
            "▁앱을": 7395,
            "직자": 7396,
            "성의": 7397,
            "▁120": 7398,
            "▁개발해": 7399,
            "▁차지하는": 7400,
            "▁인증을": 7401,
            "▁대유": 7402,
            "▁부총리는": 7403,
            "▁업데": 7404,
            "▁좋다": 7405,
            "학습": 7406,
            "▁의약품": 7407,
            "▁담아": 7408,
            "전자는": 7409,
            "지며": 7410,
            "▁포트": 7411,
            "지자": 7412,
            "동의": 7413,
            "▁기아": 7414,
            "▁상당히": 7415,
            "▁회의에서": 7416,
            "▁64": 7417,
            "통합": 7418,
            "시장에서": 7419,
            "▁휴가": 7420,
            "▁심리": 7421,
            "물류": 7422,
            "▁그때": 7423,
            "수소": 7424,
            "했기": 7425,
            "회와": 7426,
            "▁오염": 7427,
            "▁검찰총장": 7428,
            "▁하이브": 7429,
            "남기": 7430,
            "▁하락한": 7431,
            "곳을": 7432,
            "심사": 7433,
            "출을": 7434,
            "▁공동으로": 7435,
            "주년을": 7436,
            "▁10시": 7437,
            "세에": 7438,
            "▁했고": 7439,
            "▁내는": 7440,
            "▁매도": 7441,
            "CC": 7442,
            "▁3차": 7443,
            "▁서민": 7444,
            "▁일주일": 7445,
            "▁기업과": 7446,
            "▁정착": 7447,
            "▁혁신을": 7448,
            "▁힘든": 7449,
            "▁강하게": 7450,
            "관과": 7451,
            "▁늘어날": 7452,
            "▁있으면": 7453,
            "▁평택": 7454,
            "▁세종시": 7455,
            "이즈": 7456,
            "▁받아들": 7457,
            "▁쓰레": 7458,
            "▁뚜": 7459,
            "▁대표를": 7460,
            "▁규제를": 7461,
            "▁차지했다": 7462,
            "▁내외": 7463,
            "▁지난주": 7464,
            "▁감면": 7465,
            "▁지속가능한": 7466,
            "37": 7467,
            "전은": 7468,
            "진단": 7469,
            "▁랜": 7470,
            "대구": 7471,
            "▁1일부터": 7472,
            "▁프로젝트를": 7473,
            "▁억제": 7474,
            "▁관계를": 7475,
            "▁정책에": 7476,
            "생명": 7477,
            "▁말고": 7478,
            "자들을": 7479,
            "▁2013년": 7480,
            "▁비중은": 7481,
            "인터넷": 7482,
            "▁수정": 7483,
            "▁공인": 7484,
            "▁마이크로": 7485,
            "▁진행되는": 7486,
            "▁삼성전자는": 7487,
            "▁의미를": 7488,
            "됐다는": 7489,
            "▁종류": 7490,
            "▁사내": 7491,
            "▁멤버": 7492,
            "▁회장이": 7493,
            "시설을": 7494,
            "▁협업을": 7495,
            "게임즈": 7496,
            "▁코리아": 7497,
            "▁고객의": 7498,
            "▁100만": 7499,
            "▁실종": 7500,
            "▁점포": 7501,
            "▁하게": 7502,
            "▁여권": 7503,
            "지기": 7504,
            "연을": 7505,
            "▁사람을": 7506,
            "▁경찰에": 7507,
            "▁끌어올": 7508,
            "▁증정": 7509,
            "▁ENM": 7510,
            "▁소형": 7511,
            "▁언급했다": 7512,
            "▁사례를": 7513,
            "▁이제는": 7514,
            "령을": 7515,
            "▁초대": 7516,
            "▁생각한다고": 7517,
            "▁모두가": 7518,
            "전환": 7519,
            "▁고급": 7520,
            "▁노선": 7521,
            "▁무엇보다": 7522,
            "▁창의": 7523,
            "▁급락": 7524,
            "▁증가하고": 7525,
            "얀센": 7526,
            "▁일어나": 7527,
            "▁편성": 7528,
            "▁농협": 7529,
            "▁명품": 7530,
            "▁타고": 7531,
            "▁협상": 7532,
            "▁30대": 7533,
            "▁죄": 7534,
            "▁해수": 7535,
            "▁유료": 7536,
            "▁합작": 7537,
            "500": 7538,
            "만원으로": 7539,
            "▁평소": 7540,
            "▁조사됐다": 7541,
            "▁채굴": 7542,
            "대문": 7543,
            "▁운영을": 7544,
            "▁테이퍼링": 7545,
            "▁정식": 7546,
            "이던": 7547,
            "▁된다는": 7548,
            "▁묘": 7549,
            "▁2024년": 7550,
            "▁봤다": 7551,
[...]
